  t
h e
  a
  s
  w
n d
 t he
e d
  b
 t o
 a nd
  h
  f
i n
  T
 w a
r e
i t
o u
  l
  d
  c
  p
a y
  m
e r
 wa s
o m
 T he
  he
i s
a r
  n
i m
o n
 s a
i d
l l
 h a
  g
a t
  S
in g
o t
e n
a n
l e
o r
i r
a m
e t
  H
  it
 t h
i g
 The y
  in
i l
 p l
 H e
  "
o w
v er
r i
u t
 b e
  u
 sa id
 pl ay
it h
 d ay
 w ith
p p
O n
  o
  y
o o
k ed
  r
 he r
c e
  I
 S he
l d
 T im
 h is
 s t
k e
  e
 b ig
n t
c k
 y ou
ver y
s t
v e
e nd
  on
u n
 ha pp
ri end
 f riend
a ll
il y
  L
 the y
 w e
 ha d
 n ot
 l i
 u p
he r
 wa nt
 o f
a d
it t
s e
  B
 d o
 happ y
en t
  very
  M
e s
 th at
 sa w
On e
' s
ou ld
 m om
 f or
 s h
itt le
 l ittle
 s o
 s he
c h
im e
 n e
 n am
. "
 t ime
  k
ou nd
 the re
 nam ed
 s m
 b o
 we re
 L ily
 want ed
 b ut
ou t
T he
 friend s
v ed
! "
h t
 T om
ir d
e l
 b ird
a l
 a n
a ke
 to o
om e
 I t
u g
id e
 w ent
 w h
 he l
On ce
  is
 a ll
 hel p
u e
 l oo
 l o
t er
  A
 up on
r y
o re
i nd
 f un
g et
 to y
i ll
am e
 a s
 a t
r a
  j
 d id
get her
  re
u r
 s e
 to gether
a ck
 c at
l y
 t re
oo d
i c
t ed
 do g
 c ould
 c an
 the ir
ar d
e c
ar k
 g ir
 play ed
 h im
 b all
? "
 gir l
w ay
 r o
 g o
he d
m y
 a re
  out
 l e
 f r
a in
 k n
he n
 the m
u m
' t
a x
 sa d
u l
 bo y
 tre e
ot her
 ha ve
 m an
 c l
 lo ved
 loo ked
ou g
 f ound
 s p
 st ar
 S ue
on e
h ing
 s c
 b ack
ow n
 M ax
a re
 li ke
f ul
s ide
 m e
 be c
 p ark
ig ht
on g
 c ar
o p
el t
  One
 li ked
 w ould
 m ake
r ound
 l a
 f a
 f elt
Y ou
  W
e ll
 se e
 B ut
om et
 as ked
a g
 ne w
 n o
i ce
 S am
ou se
 star ted
ar ed
 c ame
 B en
 a l
  other
oug ht
il ed
 s omet
 a g
 g ood
 sm all
s s
 b r
 sm iled
 s ay
ri ed
ad e
ing s
o b
p ot
 w or
 f ind
 e x
i a
 a way
t y
 p ut
 wh at
 somet hing
 c o
 fr om
 m ade
 th ought
en ed
 h ome
 play ing
oo k
 e very
 wa l
 m u
u c
a ch
ar n
 S pot
 r an
i le
  F
i e
  J
a ve
 ag ain
 s ome
 la ug
d d
 h ouse
 d own
 f l
k ing
 too k
 sc ared
 p r
n y
u re
 toy s
 le arn
  You
i f
 w ill
 bo x
i ck
re t
a b
e p
 m y
 a round
 th ings
 you r
ou d
 b l
u ck
 w hen
is h
 li ved
 f e
 the n
 s un
a s
 s w
, "
 c h
u s
pp ed
 a b
 M ia
an k
 g et
uc y
T im
um p
T h
 l ot
is t
ot h
 t ried
a p
 kn ow
 say s
 g ot
it ed
 wh o
 kn e
u st
 man y
nd er
 in t
 ab out
L ily
 p ret
 d ec
 an y
 r ed
  D
i ve
 kne w
a ce
ou s
 m ore
is e
 c are
all y
 p ic
a u
q u
 h ug
 L ucy
 learn ed
 p o
 wa ter
f ter
  v
 bec ame
 be st
au se
 o p
 g re
 ex c
ur p
way s
â 
 out side
 laug hed
 loo k
 al ways
 dec id
 sh ow
 u n
an t
 B ob
 ro om
f e
 decid ed
 h o
 bec ause
 S o
 int o
 e at
it e
 j ump
 A nd
 p e
 b oth
er s
 M om
 d ad
The y
u dd
  ke
 on e
n n
 th is
 exc ited
 fa st
 n ice
  E
 fe el
T om
Y es
 r un
 l ong
 to ld
 s k
 a m
urp r
ou r
 in side
u ll
 t r
 s urpr
 m o
in k
 pret ty
in y
 s or
W h
 t ake
o g
 s l
 e ach
 g ave
 mu ch
 g ra
le w
nn a
 ro ck
 h ow
 st r
ar a
im al
 an imal
g ed
 ne ed
 th an
B ut
v en
et ter
 to w
  or
  C
 u nder
es s
 o ld
 sor ry
g e
is ed
r o
ur t
 c le
 f ish
 wal ked
 cl o
a nd
 be ar
f t
a se
a st
 ha nd
ur n
 W e
 k ind
 H is
 t e
he re
 happ ened
 j ust
 fl ow
 f ood
 l ist
 did n
 animal s
 h ig
p l
 ne ar
 wa t
  ide
 t ry
c hed
 sk y
in e
 s n
v ing
 f i
r om
 u s
 ide a
 b etter
 A my
 b ug
 he ard
g ry
 it s
 t w
 l et
p ec
at e
ab le
f f
  en
 care ful
 sh are
e x
  if
Th ank
M om
 f ly
 st or
i al
 f lew
m ore
 any more
 T h
 sp ec
 spec ial
i on
 c om
 lot s
 ne ver
 b y
l f
re am
 d an
 b u
 f o
 w ind
 d on
 t al
 cle an
or t
 g r
 lo ve
r m
b er
 e nd

 

 The n
op le
 e ven
 m ag
 h ard
 sh iny
udd en
 f ore
 o ver
 c ake
a k
 b ook
 co l
 t urn
 f am
 b ad
 sa fe
 a fter
ad y
 A nna
udden ly
 pe ople
 pr oud
 E very
 surpr ised
pec ted
L et
 hig h
 c u
 h urt
 c ome
im b
ard en
 do or
 g arden
b b
 g round
 op ened
 pic ked
 l oud
 cl imb
ex pected
 un expected
 g l
 c he
il d
  im
A s
 g ive
 wa y
a il
' m
 than ked
 col or
 bl ue
 st ill
 e ver
 hug ged
 F rom
 c all
 f ar
i p
 H er
 S ara
 W hen
N o
 of f
 mag ic
i z
oug h
ag e
um my
  K
 jump ed
 sh ould
 fam ily
 p ar
oo l
 k id
 sm ile
he s
u ff
 pl ace
k ay
 wal k
 n ow
c t
 I n
 gre at
e m
t ure
  qu
le s
 str ong
 st ay
 u nt
 st o
a ut
 fore st
an e
 b ra
itt y
  P
 fr og
 br o
 unt il
o on
 be aut
d y
 s qu
 st ick
x t
 ne xt
 bo at
le ase
n ing
 happ ily
 list en
a king
 kid s
 t ra
i es
i ful
 beaut iful
 a pp
t h
 help ed
 d ra
 show ed
 clo s
b e
 im p
 stor y
un ny
o y
 wh ile
 tow n
re l
p t
 r ain
re ss
 pic ture
 be ing
 re m
 every one
I t
ar y
re e
 m or
 ha t
 call ed
 m et
 sto pped
 a d
 g ame
N ow
H e
C an
 an gry
g er
uff y
 op en
 w o
 tr uck
 ke ep
 so ft
W hen
 c ry
 y ummy
 lo st
 b ed
 L et
 S ally
 wa rm
b y
v ent
 bra ve
 m ouse
 W h
 at e
 K itty
is hed
 d e
f ore
 do ll
s o
 could n
 wat ch
 le ave
 al so
dd ed
 f ell
 gre en
 fa ce
 tw o
g an
is s
 flow ers
b it
Wh at
  R
b le
 no ise
ab bit
ir st
ow l
 w here
a z
o ck
 so on
se lf
 sl ide
 r abbit
 ho le
l uffy
 be fore
ir rel
 p us
ir ed
 sa t
ill y
 he ar
 u se
â 
H i
 p a
 ke pt
â 
Th at
 squ irrel
e ar
The n
m a
 no dded
 ex pl
 st ore
 c ook
 hand s
L ook
 bird s
 p ain
 go ing
 fun ny
 ha ving
d ay
 s ing
ay be
u ch
 e y
a ug
 cat ch
aug ht
 C an
 F luffy
u it
 y ell
 th ink
le ep
 c ra
 f in
B en
 b re
 fi x
 t ired
 b unny
 us ed
 loo king
 b us
an ge
a ir
 wor k
 w r
  our
 p ull
W e
 th r
t hing
  Now
 wa it
 k it
 s ound
t ing
 j o
 ha s
  G
 me an
 po nd
em ber
 be h
 d r
 sun ny
l ed
 other s
 as k
n g
c hen
 kit chen
 tal k
 fl o
 d if
 p ie
re w
 J o
 he ad
 re al
 f irst
 t ri
 mom my
 ey es
ell o
 imp ort
H ello
 fa v
at h
j oy
  z
 rem ember
 r ight
 flow er
 c on
 m ess
 par ty
 co ld
 D o
 v o
 sw e
i ous
 sa nd
  â
a c
or n
 r ace
 cu ri
im es
 import ant
 d uck
 mor al
 sh ared
z y
ou nt
 J ack
  ice
 o kay
 ad vent
 wor ked
ll ow
A t
 en joy
 d ress
 br ight
 m aking
 curi ous
  own
 t all
 d ir
 h op
re ed
 h id
 fav or
  ri
h n
 s leep
 d is
W ow
 favor ite
 th ing
 be gan
 m on
 b ag
 h ill
D on
 cl a
 dra w
 re st
 he re
 y ard
 t ell
 F in
st er
 wat ched
q ue
 fo llow
 mo ve
 be l
ec t
 c ut
 n ight
 ag reed
 p ick
c o
 bl ock
 h un
ap er
ll y
 st op
 beh ind
 Th is
 surpr ise
i ed
 sh o
 h ot
A fter
 t able
 gra ss
 wor ry
 d ark
 tre es
 vo ice
 wal king
fe re
 flo or
 far m
 li on
 to p
 dif fere
 p lease
 r u
 s ong
 but ter
 t ail
 swe et
M ax
 sh out
 color s
 re ad
 D ad
 l ady
 for g
is y
 leave s
 clos er
ig n
 car s
 turn ed
 need ed
 t ast
Wh y
ar ing
 w ood
 c ried
 differe nt
 laug h
 d el
 pie ce
â 
er ed
 M r
 ro ll
 advent ure
 fi re
 do es
i ke
 c r
 hun gry
 ha ir
 S uddenly
 p aper
 feel ing
 yell ow
 f ull
b o
 pr in
S ue
 to uch
 A s
A nna
S am
 w et
 friend ly
 p er
o om
k en
c ked
a ched
 sw ing
 fr uit
i ent
 bro ken
 re ady
by e
pp y
 pr om
 Th at
 an other
 l ight
 pret end
 dan ce
at er
 climb ed
w here
 list ened
 Bob o
 dan c
 run ning
 on ly
 pl an
 g one
 sw im
bb ed
S uddenly
s h
 tra in
il a
nd ma
S ara
 J ane
 clo se
a v
S he
 sm ell
S o
ab y
 am az
 ho ld
 block s
 wo nder
 Tim my
 re pl
 A ll
 butter f
 se es
 re ached
 wa ll
 p u
one y
r ed
 sl ow
 help ing
 d ri
 c ream
 c ool
 gl ad
a f
 a nt
 l ess
 be en
 good bye
 a c
 f ight
at her
M ia
 pus hed
ic ed
 fa ir
 mu st
 h ide
 mom ent
 wind ow
  O
 s it
 ball oon
 sn ow
 ch ild
 expl ore
 Every one
 a r
 w ished
 b aby
 d one
 wa g
 st e
 bu y
 st uck
 per f
 th ank
 m ight
ic y
 nam e
iz ed
 try ing
 b it
 com ing
 b ar
 qu ick
 f all
 app le
as h
 sc ary
 look s
 bu ild
 do ing
 w in
 under st
a isy
 d in
 d ream
 dir ty
 he ld
am es
 book s
 m ar
I n
 butterf ly
 le ft
 shout ed
 c ount
 repl ied
av y
 re ach
 t iny
 thr ough
ot t
 d ro
 wh y
 a ir
 br an
 la nd
ke y
 th ree
 pull ed
 sp l
 gr ow
 tre at
 br other
 w ise
 wood s
 s ure
' re
 ch air
i x
 m at
in s
 se en
 p ink
 cla pped
 pl ant
el y
  owl
 cu p
ie ld
 somet imes
and y
 f ill
 cl oud
as k
 sw am
out h
 j ob
 color ful
 remember ed
 big ger
 ne st
 m outh
p e
O kay
 less on
 jo in
 c re
p h
 The re
ou p
ro om
ar t
 wa ved
udd y
 gra bbed
 stay ed
O h
 pain t
Th is
 cl ot
 con t
 clot hes
  ve
ow er
 A fter
 wa ited
 quick ly
c le
 wor d
 bro ke
uck y
 g ames
 c ast
 b lew
 g ent
 Mom my
 enjoy ed
 not iced
J o
ri es
at ion
 s et
 like s
 picture s
t on
d e
 se a
 he avy
 mu s
 al one
 g if
as ure
 any thing
 sp ot
 m iss
 ho pped
 wor ld
 turn s
or m
 y ear
d er
 b ott
 p at
 p ot
 p en
l c
H er
 m ix
 a rm
 b ike
 t ight
 every where
 w on
L ucy
 tow er
 th rew
 him self
 follow ed
 B uddy
 r ide
m an
le ss
 j u
 j e
am p
B ob
ap e
 com p
 ke y
r ow
" .
 wh ite
ct or
 wr ong
 D aisy
 make s
 Wh at
 bre ak
 bl ack
are nt
e e
n er
S pot
D o
 de ep
th y
 mus ic
 po l
 del ic
ce ss
u ed
 forg ot
 be e
 p arent
 cast le
ve s
o lly
 e m
i et
 we ar
 h it
is ter
ou n
 qu iet
 r ound
an ce
 st u
 danc ed
 v is
ull y
 want s
 le af
 mon ster
 n ap
 Jo hn
 underst and
an g
 b owl
o s
r ot
re n
 b or
 tal ked
itt en
 d ry
 fast er
 cook ies
 br ought
f ully
 le g
ro ss
 m um
z z
 s ide
t s
F rom
 s ign
 In side
 sm art
c y
 rock s
 some one
H is
 po in
 se c
 sh aring
 fo x
 we ll
 re s
 re l
 happ en
 but ton
 bran ch
 L ila
 re ally
 fin ished
en ce
ard s
 din ner
 s ister
 fly ing
ed dy
 cont in
 wor ried
 e le
 T o
 vis it
 M aybe
 be ach
  que
 sec ret
 e l
 Sara h
 k ing
Jo hn
g y
 to day
 perf ect
 ri ver
 every thing
 s illy
 sh in
 Jo e
 dan ger
i pp
 child ren
 g u
 So on
 f ield
 fill ed
 f ur
 el se
 smile s
 we lc
 A t
 w ish
 E m
Wh ile
 sa ng
 g i
z e
 p udd
 sn ack
 eat ing
 real ized
 piece s
 prom ised
or d
 sp r
 p ig
 f ree
 contin ued
 b ite
e ad
 parent s
 care fully
at ed
itt ing
 e ar
J ust
 j ar
M aybe
 c ow
A my
 bl ank
 dra g
st ead
 or ange
 mu d
 cry ing
 blank et
 en ough
 roll ed
ck et
 s oup
 sa il
 p urp
im i
 y es
a le
 dr ink
 sn ake
se s
 b oun
 p et
 cra b
 thr ow
 laug hing
 fair y
 word s
 amaz ing
 b ath
i ch
 purp le
  Z
 with out
i re
 bott le
 B illy
 gif t
 gra ndma
F in
us ed
on s
 p ast
 m oney
i ver
f ort
 m ail
 G ra
 bar ked
 wag ged
 at t
ch ool
 mon key
 do ctor
un ch
 br own
 mo ved
is es
 ask s
 get ting
 clos ed
 w he
 welc ome
 s u
 c andy
 s chool
 mor ning
 own er
g g
 l on
 m other
 hig her
 s itting
 tre asure
. â
 sm o
! â
 danger ous
 lon ely
 C h
 li ving
 app les
us h
 sh op
as ed
 str ange
ve l
 shin ing
 ro ad
e re
 Tom my
 cre at
un a
 pa w
 r a
e y
 sho es
 p re
i ble
  -
 st re
 tal king
al thy
 c aught
 e gg
o l
 pa ss
m e
 l ake
 run s
 b uck
 l etter
 w ings
 che e
f ish
 m ad
 f an
ask et
 b asket
a ss
 drag on
a pp
Mom my
s et
ck s
 st one
 think s
 st and
 delic ious
 no se
 pudd le
 to m
 B l
 M imi
 bel ie
 farm er
 sa me
 year s
bo ard
 t eddy
 b at
is k
it ch
 m ine
 se ar
 co at
c hes
ig h
 day s
 br ing
 gent le
 f it
 star t
 fin ally
 wh ist
 cr ay
ig g
 sc ream
 k ite
 p ill
ph ant
ar m
 v ill
 ch o
 sing ing
ell a
s w
in ed
 tast y
 p h
 b en
 tr ou
 she ll
 her self
 hop ed
 an sw
 w ore
 sw ings
s y
 h or
 bel ong
P lease
 pus h
 bus h
isk ers
 car rot
 ar ri
aught y
 te ach
b ow
ra ct
 n aughty
 ele phant
 dro pped
 sh ap
 co ll
i er
s c
 te ac
e my
 wo ke
b all
 p ile
 hid ing
 c our
is a
er ry
 to uc
 m in
 pu ppy
' ll
 see m
ll ie
 tw ins
am a
 l unch
 b ow
 sa ck
 p ers
 cour se
 che ered
 shap es
 J en
 gre w
f used
 ro pe
 vill age
ir th
irth day
 ju ice
i pped
 rain bow
 sp in
O K
 sh ook
J ack
 sp oon
 ben ch
 stre et
 f ence
 cut e
 F red
 ro b
 n ut
 chee se
 pr ob
 touc hed
id ge
co l
 j oy
 Wh iskers
 arri ved
 se ed
 wa r
 teac her
 c orn
G ood
 fore ver
 ab le
 be ll
 fe w
 car ry
 mo st
 pl ane
 Bl ue
le m
 e as
 sound s
ll a
 d es
 sp o
 prob lem
 b irthday
 in c
 p ower
um b
b r

  
 bug s
il k
 wonder ful
 doll s
 bus y
at o
ir p
e b
 w ra
 prom ise
 Th ank
 feel s
i an
 Em ma
et er
 bre ad
 ne ck
Fin ally
 m ilk
 rob ot
 re c
 sh y
ount ain
 k iss
ir t
 hear t
 b and
 c ave
 po cket
u b
 help ful
g ly
 slow ly
 belie ve
 sh ake
ump y
e ared
 pat ient
 p op
 o b
ar p
 li ve
 stor m
 hold ing
 u gly
 tow ards
 up set
 t urt
 sh r
ad ow
 co ver
 k itten
o st
 R emy
 sh arp
 dis app
 stor ies
 s uc
 h oney
o ve
 B ella
re ad
 no ises
 L e
 ball s
 c ir
 sp ark
 gr ay
 d ist
 dir t
og gy
 l ate
 dri ver
 se at
 buck et
 me et
 you ng
 amaz ed
 turt le
al m
 sp id
 treat s
 magic al
u nt
at or
 gl ow
 see k
 z oom
 le m
 sand w
fort able
um ber
 tri p
 m ist
our n
 spl as
 m ark
 j ourn
 fo ld
 m ach
 pu zz
 par t
l ing
 hor se
 or gan
 w ild
 prin cess
pp ing
oo se
 cook ie
S ure
en s
 hug s
 M ark
 t aking
un g
 whe el
ep end
 cl oth
 L isa
 s ug
 in stead
 bu bb
 str ing
 n et
 dro ve
il ing
 ru de
 hug e
 J im
 co in
 star s
 fight ing
B e
 sp icy
 l ucky
O f
 cra w
He y
 b one
 in v
 Gra ndma
or s
n ot
 c a
pp er
 for get
u p
 d i
a ur
 sa l
 Fin ally
 can not
 whist le
 c ard
 s ick
 p ath
 c ou
 spid er
 w ide
L ila
 fo ot
 snow man
 song s
 li fe
 pill ow
iz e
ul ar
 J ust
L ater
e st
 A nn
er t
 fix ed
 gi ant
op h
ri ll
 no d
 bo ss
 com es
 la st
 jo ke
 mo on
 tast e
d en
 mach ine
 gr umpy
 wa ve
 th in
 dri ve
 car t
 as h
 s er
 gra b
 pe ace
l ower
 dad dy
  On
 Le o
er y
 s el
 she lf
 hid den
ere st
 s uddenly
 was n
 wr ite
 land ed
 con fused
 r ing
 ch ange
 wor m
 int erest
 ch ased
oo p
 fruit s
 s our
it y
 my ster
 b ark
 r ad
 smo oth
 C ome
 adventure s
 v al
 ste pped
 f le
op e
 o ven
 take s
 miss ed
 sel fish
k in
 she ep
 mess y
T o
 ac ross
  ent
 ex p
t o
 c e
 l ater
ell y
  N
if e
 stick s
 t ie
S t
e ver
 L una
 st ep
 b ought
 d rew
 te a
pec t
 b an
irp y
bo x
? â
 was h
 l ay
 p our
 be ak
o se
 j og
 gr ate
 duck s
 sp e
 leg s
ug g
 f il
 B u
 em p
m er
 hop e
 emp ty
 sl id
 fe ather
 sleep y
 dr um
am ed
ar s
et h
 z oo
 p an
 ph one
 grate ful
 f ing
ion s
 lem on
le t
 C at
 cle ver
 M olly
 smell y
 im ag
 spl ash
 interest ing
 J ill
 sa ve
 ch ick
 c alm
 m ed
 watch ing
S oon
iz zy
iz z
 pl ate
  ign
y ard
 cloud s
 ban an
 l ine
 face s
 b a
 a ct
 li ft
 th ough
 wo lf
 back yard
w el
 seem ed
 dog s
 spr ay
C ome
 pr ot
 who le
 m ot
 fan cy
 Dad dy
 que st
 arm s
 puzz le
 he althy
 su pp
w ard
 fin ish
er ly
 al ong
ll o
 rock et
 expl ain
d ge
 eas y
 je wel
on t
 p ract
 j elly
 Ch irpy
 t id
 f ake
 cray ons
 wonder ed
 m aybe
 sc ar
 sh ip
 not hing
one st
 em b
ig er
 p ool
 long er
 any one
 B e
 J erry
u ally
 fr ont
 wor king
 give s
ir r
 p ack
 s uch
 B unny
o cked
m ent
 boss y
 D oggy
 trou ble
 smell ed
 sa ved
 p in
ra ss
 ne igh
ar rass
it ing
 h onest
 a v
ar ge
 emb arrass
 v an
 forg ive
 tid y
 we ak
ur se
 put s
un k
 k ick
 sh irt
 W ith
 m ind
 O llie
 neigh b
 plant s
 so l
 Mom o
 gent ly
 co zy
or row
m ing
 expl or
s p
 mist ake
 y og
o c
oom y
 poin ted
 l ad
 a f
 st ood
or k
 on to
 wait ing
 jump ing
 prin ce
 c ross
 lo ck
 che er
 que en
 Wh y
 M ary
 w ing
on es
w e
 l arge
 love ly
ul t
 s ur
 re t
A nd
 de er
 che w
 cou ch
 b al
aught er
 st ret
 The ir
er a
 place s
 M y
 lad der
oo f
 ret urn
ra id
 ant s
 d ish
 af raid
 clean ed
 tom orrow
 build ing
 sandw ich
 pers on
S ally
n ed
 pretend ed
 boun ce
 w ip
ge st
 mat ch
 ri ch
u ce
 p izz
 g ather
 sear ch
 bor ing
om an
 S omet
 te eth
 h um
K itty
M y
ac ed
 d aughter
 w oman
 scar f
 go es
 To gether
 la w
 st ra
 swim ming
 fur ry
 splas hed
 p ri
 love s
 tr ue
 scream ed
 la zy
 g en
 answ er
 e ag
 n umber
 ash amed
 pizz a
a w
 app eared
 fe ar
 near by
 power ful
 fl ag
 S t
 ha ng
v ous
 cl own
e k
 ch ase
 mot or
 wa nd
 T V
 ru b
 suc cess
 cho col
 I f
 creat ive
 tr ust
 we aring
 no isy
 mat ter
p a
 d ig
 he llo
 n er
 too l
 sa f
 B ird
ad o
 ner vous
el p
 te st
 sm iling
 so ld
ic ked
o ppy
os aur
 cir cle
m b
 m ap
 dr ank
 cla ss
 tri es
 chocol ate
 P lease
 imp ress
 kne e
 gen er
 din osaur
 pol ite
 m irr
 Bob by
 T iny
 balloon s
 go ld
 r are
 prot ect
 c and
St op
 car ried
 G o
ens ive
 a p
 sh adow
 mirr or
 D on
 ba ld
 g un
in a
 exp ensive
 re g
 myster ious
if f
 S p
 p ump
 not e
 her o
 mar ch
 h ar
ar l
  icy
 res pect
 we ird
 sn ee
 c ri
 g ate
 so ap
ra g
ut e
iss ors
 po or
 the se
 tow el
 wh ale
 fe et
 t ape
 d izzy
itt er
 gener ous
nd pa
 pre s
 Ben ny
 dis co
n ic
H elp
vent ually
 pic nic
 le ad
 m ic
 s que
 embarrass ed
 journ ey
 sug ar
is p
sc ape
 bo ot
 peace ful
 t ent
 f at
 B ear
 sc issors
 tast ed
 yell ed
Tom my
 t ick
 m el
 br ush
 danc ing
n ess
 gl ue
 h ur
 cl ap
 r ough
 br idge
ot e
 dec or
 clos et
 cr own
 st ir
u al
im p
 prin t
 Somet imes
ow ed
air s
 H ow
um e
 c ap
 l amp
 v ase
 sc are
le br
 rel ie
l ves
an y
 e ld
 te le
 ce lebr
 g igg
 wh isp
 lo g
 sc o
 bl ow
 pain ted
 D ucky
 p ay
er ries
 w is
 b erries
 mix ed
 sp read
 would n
 c age
 b ake
r ob
get able
 m ountain
 ad m
 draw ing
 bec ome
 fam ous
 kn ocked
 be an
 n orm
 ve getable
as p
 k icked
ust r
 sh ark
s er
 inc red
 lo se
 norm al
 wra p
c ed
 gr oup
 th ick
  3
 f ine
 gl ass
 ign or
 clo ck
 te am
 eld erly
 cle ar
 corn er
 fr ustr
 might y
rob e
 c one
 incred ible
 B r
ig hed
D ad
 mom s
 bal ance
 so ck
 sp ace
 j am
rag ile
 fr ight
 organ ized
 bran ches
 ro ar
p ort
 sw ord
al ous
 M ama
 gu ess
 f ool
 se ll
 fe ed
 S ome
 wh ich
 h orn
 pres ent
 je alous
 y arn
on y
 f ragile
 b urn
 underst ood
 m is
 stu bb
 t er
 frustr ated
W here
r ay
 ho se
c ient
 sp ent
 sho e
 t aught
 stubb orn
 tw ist
 creat ure
 che st
 spo iled
 relie ved
 an cient
 wa ke
i que
 fi er
 pr ay
 fier ce
 egg s
 c ab
 ter ri
 b arn
 pump kin
 com fortable
 or d
y m
 fright ened
or ry
 to ug
 un ique
 me asure
 go at
 wag on
 un us
 bre ath
 fool ish
 use ful
 explor ing
d le
 stra w
 unus ual
 d ug
 cl ay
 disco ver
 tom ato
 P e
 de ad
 find ing
 pol ice
 wr ote
 cl um
 ex am
l ace
 wa ves
 squ are
 hear s
 cab in
 tell s
 neck lace
 d ull
 clum sy
 toug h
 bubb les
 no sy
k n
 sear ched
To gether
 was hed
 bath room
 paw s
bb y
o nd
un n
an ged
 bo ard
f ic
kn own
 as king
 cra zy
 thank ful
 sun f
 b itter
y al
 p ir
ber ry
al k
  ind
 dif fic
 ro se
c il
 sw an
 bl oom
 un known
 E lla
 cover ed
 diffic ult
 a dd
 pen cil
 fing er
 ha m
 h oop
 j et
 w itch
 dr op
M e
  '
 chick en
 gl oomy
 lo yal
a pped
al s
He re
 we althy
c om
l ight
 un l
 cat s
 end ing
 g uit
b led
sh ine
 do ve
 join ed
 c her
an ut
 mo v
 terri ble
 your s
i ant
  U
 R ex
 sal ad
 And y
 nut s
 r at
g round
 t iger
 pot ato
 m ask
x ible
se lves
 val ue
 ch anged
 mo ving
 exc iting
orm ous
 M any
 bo dy
 T r
 to ast
 rec ord
er p
 z ip
 dis g
 che ap
 guit ar
irst y
 know ing
 advent ur
 your self
 en ormous
 hair y
E very
 sho ot
 Br own
 bor ed
 pe pper
 rem ind
or y
 ac orn
l and
 adventur ous
 sun shine
 small er
 hat s
 st uff
 sol ve
 Jim my
 fle xible
 co st
rill iant
 kn ife
 perf orm
 snack s
 nod s
 sh ore
 b rilliant
 th irsty
 delic ate
 fr own
 disg ust
 coll ect
 st ri
 seed s
 count ed
 as leep
 banan a
re en
 mail box
in ess
 d ough
 tri ck
 neighb or
ung le
 he al
l ive
Wh o
 st age
 mark et
id ent
 cu be
 j ungle
 st at
 sque e
mb re
 explain ed
at es
 u mbre
 disgust ing
J im
f ted
 la b
 jo lly
 fl ash
u nd
 fr idge
in al
il t
p id
 cr ane
c orn
 s uit
 r h
id dle
 sunf lower
 t imes
 A l
erp ill
 cat erpill
 rel ax
 sh iver
 f our
 is land
ig inal
 h arm
ic t
 Wh ile
y ing
 stu pid
 med ic
 In stead
 com b
 g oose
 c ro
ed ient
 W ill
 sto ve
I f
A re
 ind epend
M um
m ost
 spr ing
 g em
 bat ter
 s ighed
 vegetable s
 st ones
p es
 sh ine
H ow
 medic ine
 d epend
 You r
 r ug
 care less
 or iginal
 st amp
 g ar
 c ries
In side
g u
 carrot s
 sc r
 success ful
 sa uce
 je ep
 pop corn
 me al
 ob edient
 al most
 m iddle
 mag n
 stu dy
 independ ent
 fear ful
 j ack
m et
ink y
S orry
 Sam my
 e scape
 caterpill ar
 ser ious
 pe anut
 bed room
 eag er
ak en
 get s
 par rot
 stat ue
 hel met
 pe bb
  No
 f ountain
 ra ven
 an g
 past a
 umbre lla
 comp et
The re
 jack et
 belong ed
 de st
 fil thy
 des ign
 bor row
 c am
er able
 house s
 pri ze
 h ay
 bra ce
 stand ing
 mis erable
 r aced
 t aken
ag es
 for k
 cray on
 pain ting
 tri ang
i o
 impress ive
 ch oose
 f ig
 t ied
ia ble
 spot ted
 li fted
 sl ipped
our s
 t ank
 thought ful
 depend able
 ste al
 gar age
en ny
 bu ilt
 mu sh
  er
ip e
 mo le
 craw led
 sc ale
 boat s
 p ian
 p ant
 ham mer
 bott om
l ph
 cheer ful
 us ing
 smo ke
 pick s
 mo der
ber ries
 show s
 pian o
r n
 magn et
d ile
co dile
 hurt s
in ary
 re f
 cra ck
 en g
 a unt
 mel on
 wa ff
 moder n
 do lph
unn el
c ream
p ack
 t unnel
o in
 ar row
 rel iable
 ho pping
 mush room
 j ug
Tim my
 squ ash
 g um
 s ink
 mov ie
 t ax
 fl ute
 be et
 le an
The ir
i v
 pop ular
op ter
ic opter
 cry st
 on es
 s il
 compet it
 hel icopter
as er
 need s
ip op
ll ipop
 cro codile
 li z
M olly
 p ress
 trou bled
 pig e
 lo cked
 tri cks
 lo llipop
 play ful
 hum ble
 tax i
 kiss ed
 l ow
a ppy
com fortable
am ond
 un comfortable
 r id
h ost
 wa nder
at ch
 ang el
ed y
c les
 gra ce
 to rn
 an x
 wra pped
 mu ff
 tw ig
 pant s
 disapp oin
 S n
 help s
 di amond
 cam era
at ter
ot o
 anx ious
 g host
 ru ined
 te ars
c ident
 Jen ny
il ty
 qu ar
a ff
 E ven
 f is
 bel t
op l
er opl
 en v
 gu ilty
 b ull
 a eropl
 help less
 happ iness
 liz ard
 boy s
c ut
ex t
 c ere
 walk s
ce an
 pass ed
 me ant
 o cean
 fl uffy
 w ire
 n ail
 brace let
 de af
z ed
 stret ch
 cand le
 ca ct
t t
 beet le
 m op
 harm less
ump et
 ord inary
 answ ered
 coll ar
 c op
 be es
 t ire
 sh ape
 quar rel
 rad io
 flash light
 cryst al
 hard er
 pour ed
 tr umpet
 eng ine
M ama
 pers ist
 h unt
 to oth
 cere al
 inv ited
 comp ut
 t ag
 off ice
 m elt
 ch arm
 sp ill
co a
 l it
 sco ot
 c omet
 triang le
ie f
 m ug
 re p
u be
 yog urt
 sp end
 comp ass
 ac cident
 sh ade
he tt
ag hett
aghett i
 disappoin ted
 li cked
 cact us
 pa le
 c ush
 fig ure
 reg ular
 gi ving
 av oc
 pr o
 she et
 whisp ered
az e
ut h
ell ig
 cre ate
 bar ber
 int ellig
 p ipe
 ro de
 r oof
J ane
 th read
it her
 v i
 lo ad
 li br
 gif ted
c col
 pract iced
 del ight
ccol i
 har sh
as ses
 p ow
 d ust
 Tr ue
 b icy
az z
 sp aghetti
 compass ion
 sa iled
ur key
u bby
 for ward
 persist ent
 spe ed
 m itten
 co coa
 en vel
 quest ions
 comput er
 c oo
 feather s
h ip
 gl ove
g ing
Bob o
 ri ce
 shr imp
 des k
 st ream
 in se
 pige on
 charm ing
 ear s
 car p
lc an
 ra ft
 env ious
 kn ot
 t urkey
 strong er
om es
 co ins
 t ap
lcan o
we et
 tra p
umb ers
 aeropl ane
 tr unk
 whe at
 box es
 carp et
 ch ubby
 rest less
 intellig ent
 t ube
 sp un
 dream s
 friends hip
ul if
ol in
 ha lf
 craw l
 loo p
 bro ccoli
 on ion
 del iver
an ger
 ac ce
 v ide
 vo lcano
 J ake
 s le
 tra ck
 b ri
 ca ulif
 v ine
y e
 tick et
 th ief
ess ie
cy cle
 loud er
 inse ct
 n umbers
as ing
 y aw
 hair cut
it al
 sleep ing
 m ill
 al ert
 e ventually
 exc ite
 pebb le
 ho sp
 att ract
 plan et
 To day
 un iver
is ted
ul u
 hosp ital
 er aser
 return ed
 dest ro
 grace ful
 happen ing
ac he
 O K
 Em ily
 dec ide
 learn ing
 sc reen
rew ork
 nice ly
 le op
 caulif lower
 competit ive
 po em
 celebr ate
 c urt
 pe ach
 sold ier
 sa us
 par ade
at ient
 attract ive
 curt ain
 dolph in
 b ase
 vi olin
 way s
G o
at s
 tra vel
t en
 ro d
 ignor ant
ul b
 wheel s
 y ach
 sc atter
 d eter
 compassion ate
 bar rel
 envel ope
 bubb le
 l ying
 fi rework
 sor t
 quest ion
z zy
 P ipp
 scoot er
 deter m
 r ag
 th u
 bicy cle
el ery
 need le
 F r
 ju dge
 b ulb
 leop ard
 te m
 yach t
 p ony
 cri cket
 or der
 h omes
 ad or
ter n
 tr uth
 h ook
d om
 ru bbed
et e
ig ator
 bus hes
Sara h
 un cle
 cush ion
 sp ell
 gr own
 coo ked
 ador able
 ch alk
 so ar
 p urse
 sk in
 them selves
 imp atient
 c elery
 tr ay
 shell s
 pen gu
 sn iff
 pr un
 wall s
 se al
 live ly
 c ase
 all igator
 dist ant
 rad ish
 say ing
 spe ak
 motor cycle
 me at
 s end
ill a
 spin ning
 for th
 count ing
 ent h
 boun ced
 ch ain
  ed
 clean ing
eb ra
 fil m
 sle pt
 p it
 sur f
 mar ry
us ia
 wall et
 enth usia
 met al
ur b
eb ook
 b in
 we ek
 not ebook
 wip ed
 sk ip
is ion
ch air
 big gest
 avoc ado
 imp ro
 beh ave
 destro y
v ator
 band age
 laugh s
 ste ak
 pat tern
 S h
 po st
 ele vator
 Bu zz
us ie
 d ive
 sh ut
 sk ipped
 unl ock
 di ary
de st
j ect
 z ebra
 bag s
at ing
 arm chair
ag ed
ra ge
 dist urb
 o y
 po le
 show ing
 gather ed
 cl ub
 n urse
b ul
 ear th
 en c
 str anger
 swe ater
 jelly fish
 sc rew
 tem p
 P oppy
 com pl
 mix er
G ive
 sk ull
 l ime
 b ump
bul ance
 am bulance
n am
 f ather
 journ al
G ra
 loud ly
it o
 fold er
 sh ield
 B et
 L ulu
 libr ary
 P eter
 button s
 play ground
 truck s
 in k
 light s
 t ummy
 poin ting
 c ity
 decor ate
 st ation
ir it
 pre p
 fall s
qu ito
 P olly
B illy
 F o
 f u
ent ion
n ger
 Bird y
l ies
 her b
nam ent
 or nament
 mo dest
 gu ard
 mo s
 know s
 c ord
 pol ish
 mar ble
ob y
 mos quito
umb led
 sal t
 att ic
 ve st
 when ever
ct op
 res c
 y et
 p le
 disapp eared
ce ed
 straw berry
 on ce
 M um
 k ay
 brother s
 it ch
 pir ate
 foot ball
 spl it
ke le
kele ton
 h ipp
 a ut
 l ed
ur ing
ctop us
 dri ving
 c able
 supp ort
 call ing
 cup board
ak y
us hed
 wis hes
 comp let
 tri pped
 ro ot
 kay ak
 o ctopus
ob ile
 a dded
 ed ge
 m ild
st ic
 determ ined
 suc ceed
?" .
 read ing
 co al
om obile
W ell
 sun g
ut es
p ar
 sug gest
 st ack
 thu nder
 kind ness
 aut omobile
 compl ain
 enthusia stic
 snee ze
 cart oon
 yog a
 L ittle
 gr owl
ht ub
 fle a
 me adow
l a
 draw er
 bat htub
 ri bb
oph one
 mean s
 go lf
 ha ll
 s keleton
 m ath
 ve il
 hunt er
 fl ame
 g or
 po ke
 vide o
 che ss
 cup s
 tr oph
 glow ing
 mat t
 oy ster
w ork
 pen ny
 sp ear
l asses
 it self
 draw ings
 hipp o
 rep air
 sw itch
 sung lasses
 tele ph
 cost ume
 d ess
 z ipp
, â
 re pe
 muff in
 ar g
 past ry
 p un
 roll ing
 min utes
 pa cked
 make up
ir on
ri c
 Pe ople
 waff le
c ase
 hand le
 pe ar
 m aze
 teleph one
 p ine
a it
 g ear
 he dge
 matt ress
 pack age
a ving
 M iss
 sho cked
in es
 troph y
 pow der
 kn ight
 c ob
 miss ile
 man aged
 fr ame
 enc ou
 w ife
 o k
 se par
 st airs
w eb
 r ot
 c amp
ur ch
r ophone
 mag az
 col our
 str ugg
 gra pes
t ime
 f ile
he ad
 T ina
 basket ball
B ye
o ld
p er
 cob web
R e
Jim my
 T weet
S ee
 per m
 w ool
 D an
 mic rophone
es day
 ey e
 le ash
 g asp
ie w
ke ep
 we ep
 bark ing
at ure
 saf ely
 te ar
 v iew
f fe
 slid es
 step s
ffe e
ist ol
 banan as
 st aff
 sp irit
 t ask
 gigg led
 ho c
 hoc key
 ve nd
 th ose
 gor illa
J ill
 cool er
 R ose
w as
 ear ly
c ing
 mar ched
ro sc
 min t
 L ook
was her
 fl our
 hot el
h ic
 sail or
 dess ert
 ph oto
rosc ope
 ve hic
il ot
 of ten
 ch urch
 P ete
 cook ing
 rem ain
 f ive
 saus age
ot ter
 t en
 tool s
 med al
 e ither
 fire man
ch or
 gra ndpa
  otter
 base ball
 pretend ing
 p istol
 dish washer
 re ver
 organ ize
 pe e
 vend or
 kn ock
 s ight
 g rill
 temp le
 batter y
 thin king
 open s
  ow
 real ised
  iron
 la ser
 sn e
 sand box
 o il
 pat ch
 h ours
 r ise
 wh ip
' d
ctor y
 G ive
 an chor
 tra sh
en se
 sh ort
 Bet ty
n ey
 rh in
 fa ctory
se um
 m ay
 war d
at ely
 card board
ug ged
 lot ion
A l
 mess age
 val u
 ward robe
 c ell
 mu seum
ap ers
 u r
in ation
 hang ing
uc et
ail able
 S unny
 Z oom
 h ive
e er
 tow ers
keep er
 black board
 me m
l oo
 excite ment
 co ffee
 p ilot
re ady
F luffy
 nap kin
 pengu in
r on
 che ck
 re ward
 qu it
 Pipp in
 can e
 pick ing
pl ace
 Sn ow
az or
 fa ucet
  ig
 pass port
 R ob
 st umbled
 dream ed
 ig loo
 B essie
ar oo
ang aroo
 free z
 ju icy
 all owed
pl ay
 hold s
 al ready
 av ailable
 set t
 bat he
 torn ado
im ney
 fing ers
ht ray
 ha nger
 new sp
 s ize
 la und
 l end
 ch imney
 laund ry
 o ak
 fis her
 k angaroo
 m en
 Every where
 tell ing
E m
 no vel
bo dy
 m ummy
 p al
 mu le
 cher ries
 not ice
 pract ice
 spill ed
 re ind
 complet e
 enjoy ing
 mic roscope
ar ian
amp oo
 g ain
 su b
 fire place
 imag ine
and a
 dis play
oc er
 Z ip
 fast est
 magaz ine
 hur ry
 cabin et
 shr ink
 as htray
W ait
 cow s
 Sp ike
Jo e
g en
 pal ace
 impro ve
ac hes
 r ake
 reind eer
 fall ing
ocer os
 sk irt
ur ed
 discover ed
 star ed
 ro ared
a id
 sil ver
 t ub
 tra il
I s
 min er
c ome
 b ill
ict ion
 f og
 a x
st airs
ile t
 h ut
 happ ier
 tall er
iction ary
 o ats
 fisher man
 ob ject
 p or
v ision
 valu able
 sh ampoo
 ho les
 off ered
 boot s
 rhin oceros
 nam es
 to ilet
 climb ing
 bl in
v ice
O w
 stret ched
ie st
 zipp er
 listen ing
 bath robe
 s ym
 jewel ry
ale nd
 He re
 joke s
 tele vision
 pro v
 c alend
 stop s
 ax e
 jump s
 fu el
c u
 spark ly
 perf ume
 S usie
 bu ry
bo l
M ummy
l u
 press ed
 K im
ree k
 re ce
f a
 T oby
 ne at
 c reek
 po pped
 op era
 calend ar
 sn ap
 gasp ed
 att ach
 sym bol
 t una
 M ar
 p apers
M r
 un pack
 res ist
 d ictionary
 sub way
 letter s
 freez er
 cho se
 pin ch
z ag
 spo ke
 any way
 su per
 por ch
 help er
af fe
 bike s
 li e
ar ry
ic hes
 tight ly
 com fort
 sh aking
 book case
 s on
 r azor
aur ant
 sandw iches
 A re
ig zag
 we igh
 again st
 stick ers
 rest aurant
 newsp aper
 bl ouse
 vehic le
 swing ing
 p ed
 dis ag
 n ature
 squirrel s
iv al
 belong s
 swam p
 butterf lies
 g ym
d el
 inc lu
 grow ing
 buck le
om ed
 stir red
 bill board
 must ache
x y
 be ep
t e
 al arm
 light ning
 fe st
 li p
 hun g
ut or
 dist ance
og n
 c ards
 ob ser
 ag ree
L ittle
 ex t
 te ase
 rec ogn
 rub ber
i k
 hat e
f ast
e f
O uch
 does n
 music ian
 ad vice
 bee f
 ser ve
asp oon
 sweet ie
 mo del
l ter
 cri b
 blue berries
 so fa
 cir cles
 break fast
 t utor
as is
 books he
 gir affe
 fest ival
st ri
 separ ate
 she lter
 g as
 air port
 o live
 r ail
 bookshe lf
 frog s
 te aspoon
 rever se
 j unk
 rid ing
 ple ased
 dra in
 Mr s
 wip e
 o asis
 so il
 a head
 resc ue
 le aving
um mer
 pain ter
 squee ze
 ch ance
 po ked
 kn ob
 T eddy
 pee ked
 l umber
 train s
 ext ra
 sl ipp
 qu iz
 re fused
re s
rm omet
 p age
 ru les
 happen s
 sound ed
 in s
 poin t
 win ter
 Gra ndpa
 danc er
 bird c
 disapp ear
rmomet er
 Do lly
 we ather
 was te
 birdc age
 li c
 re ef
 the ater
 carry ing
 inv ite
D aisy
if orm
 go al
 o stri
 un iform
 sw ung
 tr ade
 cl iff
i ence
 law n
 lean ed
ol a
 P andy
ang u
 acce pt
 adm ire
 for t
 accident ally
 past el
bb les
 st om
 l angu
 tw ir
 s uff
 p anda
 b et
r iger
riger ator
 pe ek
re nder
 blin ked
 star ts
n a
 ref rigerator
 any where
!" .
 imag ined
 dream ing
 rem ove
n ight
 show er
 L ee
 C o
 class room
 ce iling
 car ing
i um
 gra nd
 miss ing
a ked
 lic ense
 st able
 monkey s
 the rmometer
ast ic
 war ned
 W here
 s ummer
 ab ove
 bri ck
ec ted
 c udd
 problem s
am ber
 ch asing
 lab el
 ap ron
 s ent
 law y
urn it
urnit ure
 l id
ugg age
m ed
 respect ful
 f urniture
 frown ed
 zoom ed
 p ages
 pre vent
 b ent
 l uggage
 mistake s
 ostri ch
 sun set
is on
 suggest ed
 window s
l ow
ation s
 j ail
 w ine
 ribb on
 old er
 shout s
 gra pe
 C l
 w igg
uc ture
 str ucture
 spo il
e or
 fix ing
 ch amber
 lion s
 del ay
 find s
 hand ed
 search ing
 un ite
D id
 f ought
 lawy er
 bright ly
 meet ing
 pa ir
 cho ice
 surpr ises
 E llie
 ar t
 U n
C h
 fav our
eter in
eterin arian
ad ium
 st adium
 proud ly
ik i
 v eterinarian
v et
 chair s
ro d
 sl ip
 S pe
 sad ly
 B ow
 inc re
 C arl
 pudd les
 b erry
 int rod
 ran ch
ve al
 B oun
 arg ue
  V
 adm ired
 c ur
 favour ite
You r
 in f
 excited ly
 grab s
 r ac
m end
 ste am
th ank
 hum an
eor ge
s ity
 He l
 pus hing
 sa ving
 R ed
 re veal
all ey
 y ield
om mend
ol og
 m all
 remind ed
 rec ommend
 le ak
 sur render
 har b
 app l
cu ss
a ul
 we ap
 reg ret
 put ting
 v alley
 miner al
 even ing
 mat ches
 forg ave
el come
 snee zed
 pu p
 a w
 r ushed
ec ause
 sp ade
 ap olog
 dis cuss
 pl ates
 prep are
 harb or
 ign ore
 B ig
 count ry
 langu age
 Bu zzy
 pull s
 pl astic
 supp ly
 flo at
 sniff ed
 J azz
 repl ace
 me as
 sho vel
 B ill
 ra ise
 N ext
 f re
 car ed
 so cks
 stri p
 door s
 myster y
 li ves
 rest ore
 stick er
 s udden
ar i
 kind s
 slipp ery
er o
 O w
 play er
 pan ic
ric ane
 hop ing
id ay
 sh one
le x
her o
 be g
 M ike
 B inky
 super hero
 delight ed
 g ro
Y ay
au d
ch an
 chick ens
 should er
 rain ed
 colour ful
 bre at
 Al ice
 cla w
 Bu bbles
 soft ly
Y uck
r ise
 p ort
Gra ndma
 ho l
 hol iday
ic er
  â
 bark s
as on
 throw ing
 plan es
M ary
 be nd
 Fred dy
 shake s
 inf ant
 end ed
 shiver ing
 kne el
 sun rise
 pus hes
 O live
 thank s
 fre sh
 suff er
 poin ts
im ed
w ards
 P at
 t ip
 Spe edy
 free ze
 keep ing
 W ould
 gigg le
 co pper
 smell s
 de ar
 ent er
 prov ide
c ast
chan ic
 dis hes
 E nd
co nd
 un h
N ext
 appl aud
 head s
 hur ricane
 cher ry
 men u
 me owed
 th umb
 m ass
 se cond
 bright er
in ce
 sand cast
 me chanic
 w re
 spray ed
 let ting
 e vent
 weap on
 laug ht
  x
 laught er
 cla pping
 feel ings
W ill
ick y
 splas hing
em ent
 O r
ac ked
 cast les
 F l
c er
 sc ore
 univer se
app ing
 n avy
 d em
 stick y
oph ie
 room s
 r ow
 fl ies
ig i
 D ave
 unh appy
 gre edy
 d are
 al ive
 break s
 en er
 cou rage
 inv it
Re ady
 repe at
 dem and
 trust ed
L isa
 some where
arl ie
 prun e
b les
 wre ck
  Y
 sk ill
 exam ine
 par ts
y ear
 eat en
o e
A ll
er c
en ry
 m ention
 rain ing
 Hel p
B uddy
 throw s
 jog ged
que st
 star ting
 r ush
 po ison
 pir ates
he art
 v ac
 cont ent
Em ma
 K iki
 s igh
 fl apped
 drop s
 ch irp
 sp ort
Q u
 spark led
 Z oomy
 gi ven
 stre ng
 ste el
A nn
 bump ed
 yaw ned
 stu d
 re quest
 sco ld
 my self
 streng th
 shr ugged
M ark
 coat s
 pun ish
 e qu
 sn ugg
 univer sity
 pa id
 John ny
 pig s
 scr atch
 to e
 ex erc
 tra cks
 up stairs
 pray ed
 cross ed
 squee zed
 impress ed
 fl ood
 boun cing
 R u
Al ice
 rabbit s
 bad ly
g es
. .
 war n
 le ather
 ex pect
 new s
 t ide
 T ed
 min ute
 bear s
 claw s
 bu zz
 sweet heart
 S m
 n ation
y th
S h
yth m
 vac ation
 his t
 he at
 straw berries
 obser ve
 explor ed
 sett le
 sandcast le
 yaw n
 hist ory
 L illy
 L ola
m are
 M ummy
 S que
i ally
in king
 belie ved
 hor ses
Dad dy
 H oppy
 che cked
 M andy
 net work
 to ur
 chee k
 U nder
 off er
 eas ily
 pl aced
s pec
 spot s
 snow ball
we en
m en
 ener gy
 B ee
 imag ination
 blue berry
 bet ween
ott en
spec ially
 G igi
iz es
 d aisy
 wa ving
ree ze
re at
 v room
 so ak
 rh ythm
 saf ari
 mass age
 stom ach
 b aking
 night mare
qu ake
 ins isted
 blow ing
 ent ered
Be fore
 st air
 p alm
 beaut y
 tw isted
 b other
 wr iting
 prun es
 sc oop
 bra in
  ing
ip ment
 po ppy
 hill s
n oon
 after noon
 equ ipment
 e specially
he st
 s ir
 S ee
 p ad
 ing red
 call s
 ingred ient
 Fo x
 earth quake
 ignor ed
 Snow y
 burn ed
 no body
m ble
 st y
ap a
 se w
 t ug
is ty
xy gen
 hear ts
 le ar
 lear nt
 lemon ade
 incre ase
ill ie
J enny
 g az
 back pack
 mail man
 ped al
 whist led
 S k
F red
 shop keeper
ff ic
 perm it
 tre mble
 y ucky
ang es
 move s
 introd uce
 lem ons
 cra sh
 bean s
 flo ated
ed n
edn esday
itten s
W elcome
 plan ned
 stri ke
 tra ffic
 inclu de
 sl ap
 rac ing
 L ucky
res ses
 wis dom
 p ur
 wag s
 Fin ny
la imed
 G eorge
 l uck
 follow ing
  

 pri ce
ec ting
 m ama
 p itch
 bel ow
 E lly
 H ave
L e
 we ight
 exc laimed
h ouse
 bu ried
 follow s
 com f
 ingredient s
 recogn ize
 f urt
t ain
 cand les
 mar bles
M imi
ri age
und ay
em ember
er ation
 A lex
 ap art
 W ednesday
 growl ed
uc t
 S u
ore s
 con f
 fold ed
 teach ing
 hop es
 close ly
 Fin n
 Wh o
 he el
 S unday
 encou rage
 Ow l
 P aul
 z igzag
 pull ing
 d igg
 boun cy
 furt her
 chew ed
 digg ing
 win ning
W oof
W ith
 d resses
 im age
re c
c ery
 shout ing
 gro cery
 tw isty
 peanut s
 puzz les
bb ing
 D og
 scr at
l ook
 ch ores
 whisp er
 I s
 Fr oggy
 sp ike
 c ape
 sn ail
 acorn s
 worm s
h ood
 deep er
 ur ge
if i
 exp er
 When ever
 Sque aky
 T illy
 Gra ce
 plan ted
 att ention
ec ture
 exerc ise
 Dan ny
 cu b
 op eration
 under ground
 h on
 ag re
 qu ite
 creature s
 s imp
Every one
 strugg le
or al
 M ittens
 bl ood
dd y
 l ecture
 was hing
 hurt ing
 van ished
 gif ts
 dress ed
 invit ation
 sol ved
 li cks
 snugg led
 Sh aring
i ppy
 b le
 mar riage
 quiet ly
g ie
 war ning
 j azz
 breat he
rec i
 elephant s
 s izes
 d ried
 fall en
 land scape
or ies
 spr ink
 neighb our
 m ice
u esday
 app reci
 S ophie
 Joe y
 â 
 eag erly
 sail ing
 Co co
 pa used
ip s
 count er
 G ood
 Boun ce
 P enny
 wor th
look ing
 R ock
 o xygen
B ecause
 re lease
 shin ed
N ot
p ted
 re aches
 bal an
 Z ara
 o h
is ses
 k isses
 sty le
 bri cks
 gl o
 play s
 T uesday
 ide as
s ed
 in st
 w ob
 firework s
B ella
igg ly
uc ked
 see ing
 fl ap
op s
 acce pted
r ight
 P ip
To day
 bl ink
 R os
m m
 tre mb
 mu ddy
The se
 mem ory
 mar ried
 tomato es
 Ann ie
 ex it
 wag ging
 fa sh
 Ch arlie
R emy
 wander ed
un ately
ipp ing
 glo ves
 cap tain
 pillow s
 rece ive
 res p
 P inky
ra ged
 d uring
 Every thing
et ch
 pet als
 we b
 water ed
 E ventually
 s i
i ved
 man age
 pin ched
 br ings
 van ish
 cake s
 fash ion
 Blue y
 prin ter
 destroy ed
 treasure s
n ce
 all ow
up s
 had n
 wor se
 F ifi
S urpr
 ve l
 hit s
 b ur
x u
 vel vet
 app ear
 disag ree
 catch ing
d o
 scatter ed
 R o
 mem ories
 sor ts
 P apa
 her s
 scold ed
 sign s
 or anges
 pe ars
 b ones
 ran g
 seat s
 sit s
 sn apped
 gaz ed
u xu
 ra ised
B l
 Mar ia
 z ipped
 p ies
 prin ts
 sh ot
 slid ing
 Go d
 fr o
 eas ier
 skill s
ss ible
 climb s
 twir led
c cer
 blanket s
 forg otten
 ba ked
e ster
Y um
ester day
 differe nce
or ted
 l uxu
 gold en
is ing
 k itty
 T w
 cut ting
 se ason
ag gie
 cr ow
 now here
a h
 so ccer
 d ared
 bit es
 H enry
 H arry
an ny
 l ung
 celebr ated
ch oo
 stra ight
ch ie
 unl ocked
st ers
 sor ting
 ble ed
 coll ected
ap ed
 welc omed
d ing
 vis ited
 spoon s
 our s
 st itch
 jog ging
Surpr ise
med i
 em er
 Sp ark
medi ately
 is n
 to ng
 tra ve
 win ner
um ble
 ru in
 s ince
 pret t
O k
M oral
 T ony
 att ached
 weep ing
 march ing
 luxu ry
 simp le
 E ach
 should n
 guess ed
 z ero
 cre ated
 stuff ed
 pet s
ct ion
 fam il
 wa ist
 ur ged
 bow ed
 sell ing
 flo ating
r r
 Sm ith
 by e
 K ing
 king dom
 v ict
 olive s
 kick ing
 W iggly
 pun ished
 L iz
 B aby
 to es
s it
 gr ant
 mus cles
 Ros ie
 jewel s
 bed s
 mel ted
Good bye
 sl ice
 gr in
 understand ing
 collect ion
 to re
 meas ured
 cra s
ak er
omed ay
 tra pped
i ers
 l ined
' ve
 ac ted
 encou raged
fort unately
v a
 S andy
 rece ived
 waff les
 Be fore
 W ally
 we st
 me ow
ent s
 pattern s
r in
in o
 br us
e ath
 mouth s
k ins
 b ang
r ing
 K ate
Me ow
 pe aches
 b reeze
ad ed
un e
 prin ted
 sold iers
 s omeday
 potato es
 pup il
um es
 M illie
 drink s
 she d
 exper ience
 T una
 present s
 fire f
 Ru by
 sur round
 n one
os ed
 voice s
e ep
 dr inking
 Un cle
is hing
 relax ed
 vict ory
c us
 paint s
 bre aking
 hur ried
e ve
iss ion
 tw ink
 tong ue
 cost umes
 fl at
 mention ed
 beg ged
 te asing
 whist ling
 f etch
 perm ission
 disag reed
 s ip
 pe arl
ake s
 str o
ve st
 The se
 app ro
 e sc
 sk ipping
 fis hing
 M ay
Le o
 hig hest
 p ra
 wat ches
 sor ted
 ring ing
sh ip
 to night
 B o
 op in
 let s
ic ing
  Qu
 perfect ly
 shadow s
 im mediately
 herb s
 warm th
 sp it
 remain ed
t her
 It s
w alk
Bob by
irr ing
J en
 sne ak
 s ix
 lip s
 kneel ed
Bl ue
 cont est
 C he
ut ter
 cartoon s
 side walk
 col ours
 stamp s
 ag o
H a
 B oo
 T oto
 Fo llow
 e ast
 head ed
o ved
" ,
 str ang
 lady b
 f ed
 supp osed
 root s
 li ck
 cr unch
 mix ing
 work s
 decor ations
 melt ing
 kn own
 emer gen
M andy
 rest ed
 A b
 Su zy
 l ines
 J ul
 l ily
 inst r
 la id
 G r
 succeed ed
 con es
 wigg le
et y
s ing
 set ting
 sh ock
 S low
 stud ied
 strang ers
 Rock y
Re ally
 twig s
 br id
 their s
 D r
 girl s
b oo
 scream s
!" ,
 land s
 ord ered
 moment s
 st irring
 field s
 al right
 steal ing
And y
d ed
 r ul
 brave ly
av id
 B oth
 m ister
! '
 in vest
 scrat ched
 play time
 ri pped
 invest ig
 t ucked
 burn ing
 rest ing
is hes
 Cl ara
 Ch icky
 brid ges
 off icer
p lease
Sam my
B ird
ab ies
 sett led
 mat ched
 a chie
 te x
 tex ture
H appy
 wait s
 turn ing
 Sk y
P eter
or ed
 tremb ling
ist en
 nail s
at ie
 muff ins
 Some one
id s
 esc aped
 J ames
 investig ate
 pile s
os ity
 bro om
 ladyb ug
 so re
 Pe pper
 appreci ate
 adm ir
 th reat
 b abies
 sil ence
 sister s
 emergen cy
 are a
 dad s
id es
 answ ers
 pu pp
 key s
 chew ing
 sl apped
 w iz
 import ance
 ser ved
B oo
 H op
 saf ety
iz ing
B u
W ould
 spark le
 touch ing
 L ater
 so ared
ig ail
 s ings
 he n
all en
E lla
b ers
ant ly
Mom o
 D ino
 amaz ement
 keep s
 ch allen
 tw in
 he sit
 reveal ed
ache l
an na
 it em
 d ire
 so aked
z ing
 wr it
 food s
 rid es
 dinosaur s
 record ed
 tick le
 in ch
 Z igzag
 M e
 wiz ard
 v et
 trip s
 glow ed
 A n
 Fr og
M mm
 be amed
 h i
 qu ack
 cur led
 ha ted
 w ink
 sho pping
 eat s
 B ug
E ventually
 pra ised
 wood en
 bring ing
 mitten s
 study ing
 gu y
 brus hes
 space ship
 craw ling
 g ust
 Somet hing
C at
 rul er
 fl av
 down stairs
 shoot ing
 tast es
 n apping
 sprink les
 mark s
 cudd led
 d ot
he llo
pl ash
 f ut
a les
a ved
 fut ure
 mon sters
 coll ecting
 meas uring
 H appy
 famil ies
' .
 O ut
 F irst
 M o
 th rill
 o at
ir ts
 res ult
 appro ached
 R abbit
J ake
 crunch y
a ct
U n
 rem em
 bleed ing
 remem bers
 be at
 n icer
 sne aky
 disturb ed
 lead er
 sc aring
O r
 pe el
h ind
 H ope
 fire men
 neighbor hood
 St ar
 gre y
 N ot
 mot ion
 no on
 po ssible
Em ily
S omet
 apolog ized
 we ighed
 D id
u es
 ticket s
 nap s
C l
 loo se
 pr ide
 you th
 swim s
p ed
 str ings
 recogn ized
 si ren
 po king
f ied
 H o
c ious
h a
 tri cked
el vet
 gain ed
 wonder s
 cras hed
 want ing
 o be
 sees aw
 work er
unn ies
l s
 draw s
om ing
 scoop ed
. '
 zoom ing
 opin ion
 yell ing
 prep ared
 grin ned
 Slow ly
 a we
 poem s
 dog gy
 Be ep
 act ing
 happ iest
 che f
 sne aked
 resp ons
 Al ways
 e ff
 L izzy
 own ed
 b unnies
 any time
 str uck
 ped als
oy s
 kn elt
en a
O llie
 secret s
 p ause
 decor ated
 horn s
 agre ement
 S qu
id ed
 fr ost
 tall est
 obe y
R emember
riend s
og o
 St op
H ave
 decid es
  Once
 beh aved
 t ugged
 s ides
 w oof
l ier
 sl im
z en
 good night
 keep er
 chirp ed
 spark ling
 pre cious
m other
i en
 repe ated
T r
 clap s
 snowball s
aff es
 cont ain
ind y
u d
r s
 R ay
 our selves
all ow
 gir affes
 balan cing
 kind ly
 spend ing
 writ es
ay s
pp ers
 L ike
 pr op
om as
 his sed
 fro zen
F irst
 frost ing
 eff ort
 buzz ing
 strugg led
o h
 St eve
 admir ing
 re le
ig gy
 V elvet
 sweet ies
 slim y
 br ushed
 bloom ed
S usie
 A m
 pol ished
 Z oe
ar th
an ted
 comf y
 b oo
 stay ing
 ru bbing
 pocket s
 rock ing
D ucky
 thrill ed
 be side
 comp le
 A unt
 M aggie
A h
 e ight
 mach ines
ur ry
is dom
 ear lier
 seem s
 y esterday
 r ust
 K eep
 trave led
S p
 fold ing
 bo om
 cra cked
 hug ging
it ies
 St itch
 rad ishes
 open ing
 lo ving
 cir cus
 surround ed
 curi osity
 R achel
 demand ed
 spray ing
 paint ings
 G reen
am ie
 rem oved
 g aze
 hon k
 pebb les
 zoo keeper
 hard ly
 cat ches
 st ing
ed ding
 pow ers
 stri pes
 Pipp a
 load ed
Somet imes
 splas hes
 pot s
 pet ted
 match ing
 D avid
Thank s
 st are
 be lly
 to ss
Y ummy
i bb
 apolog ize
 what ever
 comf orted
 ro cked
 B ree
 dec ision
 ribb ons
 Bird ie
 J oy
er n
 strugg ling
 des er
 ex pected
 ste ep
 prot ected
w h
 neighb ors
 chase s
 smile y
D uring
 gr anted
 cr umb
 M at
 pur red
 di ving
 sad ness
Wh iskers
 organ izing
low ers
 eag le
 hero es
 d ipped
 sun light
 li ed
 pastel s
 Fr ank
 saf er
 road s
E x
 scr u
 arg ued
 M illy
 W ater
 go als
 disco very
 Ab igail
 vill ag
 pe ered
R o
 Boun cy
u se
an a
 t im
l oe
 drag ons
 bucket s
 build ings
 part ies
 be ard
 w edding
R ex
 fl utter
 planet s
 Rob by
 an n
 pol ishing
 fa sc
ir a
 rele ased
 Ch r
 crab s
 G ogo
 tail s
 W atch
 saus ages
 J u
 ar gu
 bott les
 cont ro
 wigg led
 te ased
u ke
 argu ing
 sl ed
 drag ged
 pad d
 C ar
 ro aring
 cle aring
 mov ies
 sh irts
 gather ing
 air pl
 w id
joy ed
 spid ers
 teac hes
 l imes
 R emember
 D are
 over joyed
 act ually
 sigh s
 contin ue
 cudd le
 so aring
 J ess
 small est
 dri ves
 spark les
 ri p
 cub es
 sit u
 ref res
 challen ge
 O lly
 tal ent
 grand mother
 S plash
 pour ing
um m
 fasc in
 pretend s
 cut s
 quarrel ing
 pe ppers
 b ank
 shiver ed
 man e
 dust y
le y
 villag ers
 wonder ing
 stretch ing
n joy
i b
 week s
 dark er
 where ver
j am
T iny
s ses
  X
 on wards
 r ings
 K atie
 un ited
A choo
 be ad
 Be ing
 Every day
 prett iest
John ny
 c aut
 real ize
 comp any
 pengu ins
anna h
L una
F r
 Sp ring
 bed time
 comple ted
 W isdom
 Le ave
 knight s
â .
 flag s
 J e
 B ecause
 P rin
 play room
 act ions
 Z ero
 learn s
 got ten
 pat ience
ind a
d am
 shr ug
 kit es
 respons ible
 fe ars
 dest ination
 rep ly
 wire s
 wr ist
 d am
aw s
 pack ing
 applaud ed
 mountain s
 fa ult
 scru bbed
 m a
 cre pt
 A va
U h
 E arth
 sat is
 ph ot
 th ird
 pencil s
 win s
 stick ing
 b aker
 visit ing
 w ound
 use s
 pe as
 remind er
 contro l
Gra ndpa
as hed
 jo king
 aw ake
 instr uct
 heal ed
 P ut
 star ing
 h itting
 F ish
 scream ing
 beg in
R ob
uck ily
 F riends
 M oo
ic orn
 helmet s
ent y
 un icorn
l er
se ek
 towel s
 L ou
S illy
 ch ips
 cre ation
ic a
 was ted
b ie
 Be hind
M ar
la ire
 mask s
 item s
 forg i
 firef ight
 lollipop s
 out do
W atch
 he av
 gun s
 H ippy
 d ied
 se as
 gl itter
udd les
 arri ve
 sto le
 were n
 sc ales
 ac com
 per ched
 achie ve
 log s
 pract icing
d ie
in ing
 who se
 instruct ions
 pump kins
St ay
 batter ies
 sw oop
 agre es
 cand ies
 pro ject
 snake s
 chirp ing
Ben ny
 she lves
 prot ecting
 par ked
 ex act
 C ra
 patient ly
 act iv
 vide os
 should ers
 blow s
 prom ises
he e
F o
 d ent
g o
us an
ue st
n ers
jam as
 airpl ane
 exam ined
D oggy
 ro ses
 accom pl
 task s
D ave
 Ho ot
P oppy
 B op
B unny
 bead s
 bowl s
 crumb s
z es
 listen s
 L ove
 Brown ie
 Cat ty
P ete
 O l
 dolph ins
 c ough
 b unch
 g uest
 request ed
c akes
 rem ote
 impro ved
 reach ing
 bra nd
ant a
 J an
 al ien
ay la
 B ye
ir m
 cop y
 S un
 cheer ing
 phot os
 Jul ie
 Che w
B ad
 Bl ink
T ime
 can s
 C uddles
 tim er
 B y
 repl aced
ath y
 work ers
 st ern
 E njoy
ast er
 ne ither
M ike
 mis ses
 pass ing
 curtain s
 conf l
Ch irpy
 rainbow s
 rub s
G eorge
uct antly
 roll s
 pat ted
 pa jamas
il o
 outdo ors
es ome
 complain ing
d ies
 Squ irrel
L ola
R un
 pupp et
 Prin cess
 ben eath
 close s
 drum s
 la p
 t une
 B eth
 M ouse
 fill ing
M iss
 ref use
ang led
 S orry
 swe at
 fa ced
.. .
 se ven
 balan ced
 resc ued
 qu acked
n eath
b l
 A bby
P aul
ist le
 aw esome
  1
 How ever
 miss ion
 confl ict
 caut ious
 guy s
 obser ved
 v ent
 c ause
 introd uc
 Th omas
 past ries
n ie
   
 O ur
 exact ly
 doctor s
 ru le
 bec oming
 police man
 m es
 rocket s
u ly
y ou
  Yes
 D ot
 fair ies
l ay
 p out
A n
 ins ist
 bloom ing
 tra ctor
 far ther
 S ad
av i
O ops
G reat
 inclu ded
 remember ing
 cur ly
Z oom
F ine
 team work
z ie
 fascin ated
 wob bled
 sl am
 tr uly
 help ers
 sight s
 pad dle
 st umble
 f irm
 J illy
H enry
 ca used
ac ob
 pray er
 record ing
 sp ong
ke lly
a is
 tr aded
 star fish
 supp lies
 poin ty
 th ro
 situ ation
 inv iting
e ah
 neighbour hood
 every day
g ers
 ornament s
 A lly
 val ued
ink le
 add ing
S ome
 rel uctantly
 dot s
 stay s
 prett ier
 table s
 b are
 des ert
 snow men
 ste ady
 miner als
ara way
 th orn
o dy
 a st
 gl asses
 f araway
 Fo xy
 G et
 swoop ed
 Tw o
 W elcome
 S ure
 un f
 fork s
 us ual
 us ually
P olly
 d ar
 J amie
 snee zing
 win ked
 sol ut
 load ing
 spong e
 Qu ick
 insect s
 pan s
D og
 so bbed
 S anta
 growl ing
J ames
s m
 thro at
 Ch loe
ar ter
 Jo sh
 no ses
 D izzy
 conf ident
 scar ves
 your selves
 W ant
ag ull
 home work
 superhero es
 St ay
Jo ey
 sm arter
 wind y
 libr arian
 K ids
T ina
 gem s
D ays
or a
 under neath
 kick s
 know led
 itch y
 knowled ge
 jacket s
 F or
 S kelly
 surf ace
 unt ie
 com m
 D uck
 prince sses
.. ."
Th ose
id o
e ed
H old
Y eah
c oon
 square s
 H enny
 warn ings
 gigg ling
 read s
i ar
v in
 ch oo
O ur
 you nger
s on
 clown s
 M ix
T oby
 ro pes
 bit ing
 crow d
 Un fortunately
p ite
D anny
Tr ue
 se agull
 padd led
 wear s
 deliver ed
 M on
 buzz ed
 twir l
 on ions
 complain ed
 b umpy
 st em
E w
 pig gy
Mr s
 Ann e
 dire ction
 di ved
ou ch
Ro ar
 start led
 t angled
ul ts
 lean ing
bb ie
 A nt
 J ones
 bad ge
 P o
Gra ce
 un p
 de al
th ough
Ann ie
 v owed
 nap kins
 tick led
 r isk
an es
 cover s
 p ec
Sh h
 yell s
 satis fied
in t
 knock s
 refres hed
 S c
t uce
cu se
 c ous
 arrow s
M aggie
 Wh istle
 wip es
P e
 spe aking
 guess ing
 let tuce
Un fortunately
 Qu ack
 ri pe
 S usan
 choice s
 hid es
 Do do
 Ro ver
Bu zz
 sign ed
 slow er
 seek er
 introduc ed
 creat ing
 sing er
 Mat t
 fro ze
 c ent
ugg les
 jo ked
 sque al
 toast er
 explore rs
f it
 av o
ang ing
 pray ing
S ophie
 discover ing
 wr itten
 prov ided
 D ara
 ref le
 L ion
Ex cuse
 Je ff
 mushroom s
 P aws
 pay ing
 kne es
ence s
 hid er
 wander ing
 As h
 imag es
Ch arlie
 st ung
 W ink
 bare ly
 magnet s
 beh aving
 tip to
 mar ked
?" ,
br ush
rr r
 rest ored
 D ee
 lead ing
 ch uck
ll ed
 gre et
ad os
 n ine
T eddy
 gear s
 bra very
 Sn uggles
 competit ion
k y
 out fit
e al
ol ine
 prop erly
 wis hing
 vent ured
 mus cle
 dance s
 ch at
t le
a a
 sal ty
 pen s
am b
 Bet sy
 Z iggy
 ran ger
 deser ve
 how ever
 matter s
se qu
 dark ness
 bur st
 F u
 cobweb s
 rain y
 chef s
 ruin ing
 block ing
 con sequ
 b ak
ust ed
it ely
 sc ur
st y
 v ines
 fa b
 fab ric
ab el
 base ment
 ent ire
 perform ed
 le ast
 Bug gy
S n
 scrat ches
 heav ier
 C laire
 min ts
 twir ling
 avoc ados
How ever
 L inda
r ink
f l
 scur ried
 lo sing
 sunf lowers
 Jen na
 rain co
 sword s
T weet
 cl ick
ag ic
 L aser
 sil ent
 job s
 necklace s
 fl ames
 L uke
 Gr umpy
 relie f
 sew ed
 rot ting
 sn at
l en
Fo llow
 trick y
L isten
J erry
 light er
oph ia
 Sk ip
 bow s
 ex ha
 consequ ences
 solut ion
A lex
 L ena
 tire s
 st ain
Be ep
 unp acked
A b
 part ic
 race s
r ance
 bump s
 p ins
 wrap s
ais ies
 decor ating
 b acked
 w ow
c her
 dent ist
 cautious ly
 pur r
 need les
 lift ing
izz ie
 P r
 accompl ish
 triang les
 d aisies
 ann oy
 hesit ated
ep t
 Th ose
 growl s
 crack ers
o ke
 stom ped
 gra bbing
 c ott
 fig ured
 bo dies
 m ater
 buy ing
 T ree
 mater ial
 R olly
 F ido
 A dam
 swan s
 t ies
 g ri
ver s
 grow s
  
 
 sweet s
 Good bye
 flav or
 cheek s
 own ers
 C athy
B ig
 suffer ing
 E l
 J essie
 fa ct
v room
 group s
 fore head
b ly
 lung s
 re pa
H arry
 bak ery
 interest ed
 M ilo
 f reed
L illy
 Not hing
it ches
 chuck led
F or
 con n
 sw ept
 exha usted
 thu d
? '
 twink ling
 t apped
T w
R u
 ne ct
 nect ar
ro sty
ell e
 fe ast
 dar ling
ind r
 M ad
 wor ries
 fu zzy
 tunnel s
 un s
 repa ired
 Tr ust
 re ason
 Co pper
 B all
 activ ities
 pec ked
 H annah
le ts
 ent rance
 T ry
 ra indr
 me als
 L isten
 partic ular
 complet ely
 ma iled
 nest s
ct ions
 cudd ly
 wait er
 s ense
 N ana
 color ed
 le ap
ark y
 pee king
st ep
 pl enty
b and
 slam med
 C ara
n o
 play ers
 mon th
 bu dge
 B irthday
  Q
 sc ra
 forget s
 d en
 Ol iver
 hand ful
 m er
o ssible
 gen ie
 Chr ist
 st ool
igg ie
 talk s
 P up
 Su zie
 passport s
 feed ing
 film s
 bath s
 imp ossible
 determ ination
 prin ting
M ay
 design ed
bo at
 bu ses
 o pp
 suit case
 bar s
ue en
le phant
 count s
 sto len
 spike s
 Sn ap
 spread ing
 wip ing
 ste er
 R ain
 l amb
 hon ked
et ty
 cow b
n ies
W hee
 separ ated
bl ings
 si blings
 hop s
 ch op
 Tw inkle
 sew ing
 fire s
 fe ver
 twink le
 t y
 camp ing
 M ira
 l ower
 ch anging
 beh avi
ret ch
y es
 Bl oom
 celebr ation
 li qu
m as
 squeal ed
 doll house
b ut
S unny
 back ward
 ag e
 snat ched
 c ash
 tw ice
h o
le e
 s way
it ched
 celebr ating
 Pe anut
 shr inking
 ac he
we ed
 k ings
ri ous
 kitten s
 shop s
 Jess ica
 J acob
c ope
R ose
 G ina
au ra
 h us
 touc hes
 pan cakes
air y
 avo id
 sp at
 F rosty
r ig
 N ina
h og
 path s
ive s
ck y
 H old
 calm ed
 r otten
 sea weed
 dro pping
 J on
S andy
 M el
 stro ked
 twist ing
ile s
P ipp
 unt ied
 play house
ll en
n e
M illie
 pupp ies
 stud ents
 So f
c l
 ast ron
 screw s
 R e
h i
 some body
 liqu id
ig ning
 wake s
 squ ish
am my
 W oof
 astron aut
 brace lets
 thr own
are n
im mer
 loop s
 O ther
 wra pping
 pl ain
L uckily
 plan ning
 tr amp
 sk unk
 a imed
 pen nies
 sh oo
 lift s
 danc ers
 firef ly
 spark s
p en
D an
 po ster
 Christ mas
end y
 c ust
y an
 object s
 reward ed
 dire ctions
us ing
ing o
 hus band
 refle ction
â 
T ake
ri ver
 cl ues
u ppy
 lead s
 incre ased
 bl ocked
 r ising
 cous in
 Y esterday
 do d
 With out
 forget ting
 cust om
rig ued
K ate
u de
 tramp oline
 begin ning
 pout ed
 store keeper
 zebra s
 hedge hog
 a ff
 Ro llie
 â 
 borrow ed
 snow fl
 country side
 mes mer
 J ay
J ump
 vehic les
 instr um
 K ayla
 M ic
 U p
 frown ing
iv ity
P at
U nder
 mark er
 Q ueen
 pres ses
 be y
 bey ond
 dam age
 On ly
 far t
ie ce
 B iggie
 T ara
i very
j o
 heal th
 swims uit
 slip s
 whisp ers
 n ibb
 Jul ia
arm er
 warm er
 fl apping
 tipto ed
 regret ted
 Rob o
 lay ing
itt ed
Z ip
 F ire
ad es
 y elp
 rain s
 gl ued
 every body
 cre ations
 hear ing
 cold er
 sw ir
iver sity
a el
 shap ed
 E lephant
 street s
 fin s
 rust y
 cush ions
O ut
 sa n
 fart hest
 Mike y
 creat ivity
an s
 sa le
Al ways
 strong est
C o
ibb it
 Spark y
 fit s
 bell s
 doll ars
 L arry
 e arn
 lend ing
 Ch irp
ang le
 M oon
i am
 cash ier
ee se
 inclu ding
M illy
 san k
 rainco at
 sniff s
 R ich
 tremb led
 sto pping
 sour ce
it i
 Miss y
im on
 wob bly
 ind eed
ter s
 guest s
 sing le
 recommend ed
 we e
 spell s
 accomplish ment
 bel ts
 end s
 surpr ising
 hope ful
 seas ons
 Snow man
 T ake
 E ls
 plan s
B ear
 encou rag
ich ael
 supp orted
 art ist
 suff ered
ill ed
st ick
 perform ance
 slow ed
e et
N ina
 g ross
 flav ors
ert ain
 sp ins
id ing
ch o
Qu ack
 label s
 raindr ops
 del ivery
ara c
u ing
 forgi ving
 rac coon
ob ody
 W oo
 pour s
t he
 van illa
 turt les
 stand s
il ity
B ill
u ess
 rec ipe
 be am
 t ying
 S w
 g eese
 rob ber
 draw n
 will ing
 we pt
V room
 B ones
 ch arac
 pop s
 corn ers
 S ophia
 que ens
el ia
 gri p
 sail boat
 d ie
 driver s
 m oo
it ude
 hall way
 imag ining
 second s
 Fu zzy
 prep aring
M ine
 wid ened
 ad ult
 Sp irit
 gro cer
 c oop
 talent ed
 Be aky
 P am
 I zzy
umm ies
 sail ors
 as ide
 so fter
ll ing
 water ing
 send ing
 knot s
 uns ure
 t ipped
 hor iz
 tree house
L ulu
 L izzie
 not es
 e cho
 achie ved
ig ers
 horiz on
 deliver ing
 sque ak
 ple asure
 St ella
 hot ter
Cl ara
 pupil s
 bur row
 angel s
 curious ly
 blin king
 y um
E llie
 J une
 symbol s
 St retch
 tw eet
 d et
 Ru dy
 pass en
 C indy
w k
 t ummies
 figure s
 pige ons
 t iss
umb ling
o ey
 Rob ert
 band ages
 Do ctor
 c oup
 robot s
 toss ed
al ph
 back wards
 h our
 ro ars
 mer ma
B aby
 r ather
u zz
at ur
Mar ia
c ited
 Cra b
 P lay
M oo
Do lly
ight ing
 grocer ies
 zipp ing
P ut
 un w
V ery
p rin
 am ong
 bl own
  icing
!â .
 after wards
 r umble
 screw d
ipp er
us hing
 pr ove
 sp ed
 g lee
 T iti
 T ia
 d ip
 over come
Ru by
Qu ick
 surf board
 shovel s
 slice s
 To ot
 m erry
 wob ble
 m ate
 A bbie
 T urt
 disturb ing
 head ing
 firefight ers
 rever sed
 sw all
 swall owed
J ul
 ch ip
 fl ipped
 sc ored
ed s
 J ump
 squee zing
Fr ank
ust y
at y
 wa king
S u
 int rigued
S ad
 m aker
L ike
 B arky
aw n
 p uff
B etty
 ha wk
 encourag ing
 a ud
 E x
os en
 R on
 ch osen
on ies
he w
 F armer
 A ng
 coup le
 design s
 screwd river
 slipp ing
 squish y
 Em my
 cent er
 garden er
 river s
 resp ond
 mark ers
 jar s
ile y
 t igers
 frown s
pec ting
 Sad ly
 flutter ed
 K it
b ird
 firefight er
 R yan
 S l
R ibbit
 suit s
 sec ure
 sprink led
 cream y
 ignor ing
 shark s
as hes
 br u
 gigg les
 tiss ue
 tight er
 firm ly
oun ce
 L aura
 famil iar
 sh own
f ly
 thorn s
Sp ike
 W o
 draw ers
 Z ee
ch ild
 exp ress
C ar
 aud ience
 cross ing
ment s
 de f
 d aring
 colour ed
 perform ing
 cloud y
 c or
 N ick
 a is
a e
r at
 pedal ed
 mix ture
G et
 grace fully
 t il
g gy
 haircut s
 yield ed
 p onies
 crown s
 dis ob
 bit s
 S leep
 to dd
 nervous ly
 hang ers
 P atch
bb led
 pay s
Z oomy
  2
 pe ck
 stro ke
 e v
f all
B ang
 res pected
 n apped
e en
a ven
 mind ed
dd ie
B essie
ab ly
 test ed
B oys
ad ing
p arent
 Chr is
 Un iversity
 N ear
K im
 bee h
 Turt le
 surf ing
 neighb ours
ar row
 sh ady
ver ed
 enthusia sm
arl ings
 magic ian
ion a
 d arlings
 wis ely
 sail s
 st itches
ke nd
D ear
 wee kend
 thought s
Fred dy
 Tweet ie
 remind s
 temp er
or ing
 spit s
 surround ings
 fle as
th a
ant ha
 team s
 lesson s
 fill s
 Al ong
 fl ip
 mel ons
 paint brush
 merma id
on i
K atie
 grand child
 hoop s
 el bow
 expl o
 sport s
 F ighting
 li es
G uess
 pan icked
ra c
 clean er
 am ount
 long est
c used
 scoot ers
 l ent
immer ing
 bel oved
it a
 s ill
 beeh ive
Pipp in
Al right
og a
ong rat
ll e
ongrat ul
 grand parent
 oy sters
 forgi ven
 magaz ines
 ar r
 W ise
 e lf
 repe ating
 discuss ed
 Thank s
 sweet est
 May a
 wa dd
K eep
 Gr anny
 la ce
 re ass
 nightmare s
 tub es
 W illy
 spoon ful
 understand s
 bat hing
 Z oey
 n ood
ast y
A m
 swe ep
 man ners
Un cle
 spr ang
 wr ink
 H olly
 n ur
 b ully
c row
 Y et
 gu ide
an cy
on na
 c rew
rom ise
 breat hed
J azz
step s
wh ile
ild a
ent ly
 B ally
 bulb s
 grass y
 ne are
 wigg ly
 test ing
 sp ies
 c oug
 sheet s
 sol ving
 R oo
 foot steps
 speed ing
After wards
nt il
 fo cused
oun ced
ce pt
? !"
 mesmer ized
 cam el
 bra ver
 hesit ant
 Spark le
 lick ing
 r ushing
 W ell
 join ing
 P uppy
 greet ed
 Mar tha
 pol ar
 Bu bb
es pite
- -
 material s
 N obody
Wh ich
 ch anges
 wor n
K iki
und red
 bicy cles
 stor ed
 an ger
 m ast
Le ave
 peace fully
 ship s
 sp ice
 Sh ow
 terri fied
 g onna
 n uzz
 pol itely
Sn ow
 spill s
 scare crow
 kn ives
 ev il
 Mix y
 bury ing
pp ies
c a
 heal ing
 are n
 aeropl anes
 don key
f reeze
E ven
 scatter ing
 se als
 m iles
 Chew y
am boo
 d ump
 worry ing
B ee
z oom
be ep
 L enny
D avid
 puzz led
 st acked
 K ip
 N ice
P enny
 lo ses
 trave lled
 basket s
dd ing
 W in
 O kay
 gaz ing
 bl ast
ip es
 T ess
 temper ature
H urry
 belie ving
 dri pping
 tast ing
 cl ue
 u nd
 pinch ing
 1 0
 rat s
 so aking
er m
is c
 sand y
 Is n
re ct
 S imon
an while
re y
 Ab i
 punish ment
 ban ged
B inky
 cras hing
 human s
 A na
 for ce
 g est
 h undred
 L ia
 Che ss
 swim mer
 snowfl akes
 relax ing
 beep ed
 res isted
 F airy
 quarrel ed
 W endy
el ie
 r amp
f orm
 jo ins
 backpack s
 P h
ab by
year s
 delay ed
 dress ing
 todd ler
 L uckily
 cover ing
 fl ight
 T e
Tw o
 encourage ment
 ben ches
or ter
O pen
B y
 scra ped
 tow ard
 Ju dy
 purp ose
 fo cus
 cor rect
B ow
 lip stick
' ."
 b amboo
 month s
 twink led
 perm itted
 pot ion
 C ow
S pe
 langu ages
 freed om
 ord ers
 risk s
 po ppies
 m aster
T ony
 nood les
sh m
 f aded
 wound s
shm allow
ri er
K ids
 Jo jo
is ions
 cream s
 bird house
 annoy ed
 cell s
 Her b
 sniff ing
 ad ults
 che ers
op es
 unw ra
Bird y
Bu zzy
 opin ions
 flo ats
ec ca
 p uck
In stead
and as
 fl own
 snee zes
 hands ome
 sc en
 no dding
 M int
 bur nt
 smell ing
  5
 dri fted
 with in
id er
b age
 dam aged
 bother ing
 sc ient
 he ight
 instrum ents
 ple aded
 te aring
 sl ither
 e ase
 Al i
 scient ist
 Mar ie
d a
B ack
Good night
M ira
 p ound
 sell er
 hand ing
 S ay
 g erm
 file s
 was ting
 res ults
 dream t
 M abel
 brus hing
 destro ying
 explain s
b ell
 charac ters
 R azor
 C r
ous y
 his s
 St e
 c ertain
C arl
 sweat y
Be hind
 H ug
P andy
un ched
 Rob bie
 bus iness
 tal ents
 on ward
 eng ines
 brave st
T ry
 stern ly
 Jan ie
 P en
it ion
prin ts
 mosquito es
 post man
 mind s
 scare s
 t uck
u nder
c ake
 apolog ised
 stom p
u rious
 man ag
u el
 sn uck
 b itten
 til ted
atter ed
 remind ing
 dec isions
 sw itched
 behavi or
 Po or
 des per
 sing ers
 Ju dge
as hing
bb ers
 peel ed
 sque aked
in ny
 Every body
 pur rs
 y umm
 B ra
 rust ling
 display ed
 U ntil
 treat ed
 sm ashed
 mate y
 neat ly
 plant ing
 B ess
 mar shmallow
 in sp
 grandparent s
 yelp ed
 bell ies
 cra cks
 s y
 N avy
 shin es
 sc amp
a ver
 color ing
 fa iled
 h oo
 Y oga
 zoom s
 M ake
l ine
 breat hing
 n asty
r up
 comb ed
 des pite
 p andas
 add ress
 water fall
ig hing
uff in
om p
 Ang el
 L oop
c c
 wid er
 ant ic
 ro bbers
T illy
 echo ed
Ab igail
 sweat ers
 To dd
 door way
P lay
 ed ges
e vin
 Sh adow
 in j
A unt
 disob ey
 Bl inky
 g ap
 M ichael
w ise
L iz
 Fl ick
 t ar
 tap ed
 magn if
os cope
or king
W ake
 flap s
 scold s
 act ion
ul p
f ather
 crawl s
 M indy
 G ary
 sw ap
 back s
 go bbled
R os
 Fish y
 war ri
 E ddie
 se ver
 st eth
S low
 newsp apers
 prob ably
 shin ier
 sever al
 o cc
 Me g
 enc ount
R ock
L ena
 conn ected
 ser ving
 quiet er
 pl ucked
 Sh are
t ock
  ouch
ig ger
 gest ure
T ed
A dam
 stud ent
 door bell
 pl ot
T oo
F l
 squ aw
 care s
 grand son
 resc uing
 S e
f ire
 simp ly
 row s
 sp y
 g oo
 whist les
i el
m ies
 astronaut s
Sh rink
 snap s
 sh orter
v ant
M agic
 cott age
 unpack ing
ss ss
 Tim e
 accident s
 sw o
 swo llen
ib i
 N ut
 m ood
St eve
 Z ippy
ab elle
 M ousy
 bother ed
an ie
Z ara
 steth oscope
H annah
f ound
 trust ing
 ca using
M ad
M at
 leap t
 dress er
ain t
 s ou
 prop er
 pill s
 through out
ret ty
 pray ers
 run ner
 D ina
O live
 joy ful
Th omas
 Pr ince
 lo cks
m ates
 goat s
J amie
 tar get
wh at
 K aren
 W ait
re st
 de ars
 B ang
 wadd led
art led
 C ro
 fl ips
 m unch
R ed
 low ered
 ste pping
 Jack ie
 con s
 teacher s
 cowb oy
 T oys
 envel opes
 in ches
 V room
ear s
 ch ar
 antic ip
 explore r
 Re ady
 R alph
 R uff
 play d
Fin n
un ity
N ice
 B ad
en ing
 effort s
 knock ing
 floor s
 P l
 uniform s
 T ri
l ied
 aw are
 foot prints
Some one
 near ly
 F iona
 dis c
 R ia
ll as
 appreci ation
iv i
 gl itt
 tr ot
 wh imp
 s ens
 coll ap
 che cks
 ne cks
oo sh
 ex cept
 la pt
 Jack y
 ch arge
 pl ug
 flutter ing
 umbre llas
 stamp ed
 Dave y
 sandcast les
ac y
 stat ues
 H oney
isc uit
 Am elia
 shr ank
ail s
om b
H oppy
 add s
 pri ck
 fin ishing
r ily
r ons
 dod ged
 stro ll
 hunt ers
 chocol ates
 germ s
 passen gers
og er
 ais le
 ap rons
 wr igg
 set s
.' "
 G erry
 novel s
 we eds
 demand ing
or der
 T aking
 meow s
 scratch ing
 nur ses
iss a
D r
 discuss ing
 mind ing
L ucky
 drive way
 C ari
ur render
 k illed
 bec omes
 lapt op
 El iz
 tool box
 ha ird
 Sad ie
 att ack
 po sit
 D espite
Spe edy
 scamp ered
 bounce s
so l
 supp lied
 spray s
 G l
 de ed
 tem pt
 suggest ion
 friendship s
 burn s
Co co
 clos ing
 sl apping
 anticip ation
 invit es
 belong ings
A rrr
 cott on
 er ase
 spring ing
 St an
 for m
 twist s
 r ays
 snugg le
 forgive s
 model s
 mass ages
 hum ming
 sh all
 respond ed
 new found
on nie
 ghost s
 ex pecting
 She lly
 che ated
 Woo ly
Do es
G igi
 travel ing
 N e
ott e
 bat tle
 co nd
 al though
allow een
 mom mies
 invit ations
 car ries
 a im
 refres hing
 present ed
 con c
 tw enty
 B umpy
 r owed
he l
 squ ir
ot s
 coop er
arl otte
 fox es
ri e
 duck ling
 fin al
 ca fe
 B ibi
 marshmallow s
P ip
 Z ipper
 cl icked
 jet s
 des igning
 be aver
o or
 M uffin
 H alloween
f ive
 Who ever
 mug s
 Al though
 dr own
 Ex cited
 opp os
 picnic s
 con vin
 tri cycle
 R uth
 C le
i ens
 Mad die
 scoop s
 P op
 c ongratul
p o
Sad ly
 â 
 travel s
 al iens
 Spe ed
 question ed
 test s
 strip s
 cra ft
in ted
N ear
at ty
M ouse
 Fl utter
co vered
 de fe
 Bubb a
ir i
 fight s
B r
 oppos ite
 Big gy
ro ken
B all
Ch loe
 I m
H mm
F ind
E lly
 encount ered
 aff ord
 grand father
 N ever
 r out
 dec l
in ch
 ra ising
 V ivi
 up side
im ent
Me anwhile
 calm ly
 R ita
 fl ashed
J ess
 since re
 yaw ning
 real izes
atur day
Tr ust
Ch oo
 cryst als
 Sam antha
 b uddy
 buck led
 cup cakes
 def in
 win ners
by es
B oth
ver se
r is
 weap ons
 ca w
' ,
 pack ages
Jo sh
sh adow
 che at
 S aturday
 mes ses
 att em
 co ach
 good byes
 sa cks
 Fl o
 Tr uck
 con vers
qu et
 cap s
 dri ft
 E va
 M ina
v al
em ies
 en emies
 yumm iest
 scr ub
ash a
 return ing
 sw allow
 Sof ty
 Me gan
 admir ation
ri an
 Lou ise
 spr out
S ince
 Play ing
 An other
 un able
 Y awn
 freez ing
ugg ing
 bright est
ook s
 sad der
 b less
 resp on
 M an
 respon se
 O h
 co sy
re verse
 diamond s
 br ide
 opp ort
 hon king
 gar bage
 re app
st alk
 whisper ing
 prevent ed
 stret ches
 aw ful
 G ray
ant astic
 who ever
 o dd
er k
 aw oke
 weigh s
 journey s
al th
 spice s
 trap s
 dragon fly
B rrr
 b orn
o ff
 reass ured
 cl ip
 arg um
iv ia
 bean stalk
 st all
 defin itely
 automobile s
 beet les
 exam ining
 M aisy
 playd ate
 stuff ing
 visit ors
ic i
m ine
H op
 was hes
c ie
b roken
 custom er
 wis er
 Sof ia
 trave lling
 Fl op
up er
 Jo lly
em ma
R achel
 haird ress
 N urse
ou quet
 b ouquet
 camp fire
 decor ation
bb le
 E lle
or se
 t umbled
, '
 honest y
 bu d
eb ecca
On ly
 b omb
v y
 offer ing
 welc oming
 occ as
 incre asing
 trou bles
 O t
 J ax
 we alth
 He llo
 insp ired
 loud est
 ty pe
 gro an
 Ch ick
 par ted
 Nut ty
 R icky
 Th under
 wh ales
ir ac
y l
 decl ared
 correct ly
 Quack y
 beak s
ook y
y ler
f us
ath an
 cle ared
 cowb oys
 nuzz led
 Dot ty
 pri zes
 ex ch
 Miss ile
Fin ny
 warm ly
 custom ers
 obey ed
 re wards
 siren s
Sh ould
 comfort ing
 F el
 conn ect
 Fl appy
sh aped
 town s
 M agic
 B ingo
m atch
elie ve
 V icky
 re ly
 insist ing
 bend s
 own s
 tr igger
 F e
 f antastic
H oney
 hairdress er
 spo iling
 surrender ed
 support ing
 clean s
 share s
 po ses
 p ipes
 wrink led
Jul ie
Out side
ren ch
 C ook
S un
 cho pped
 beam ing
 rec order
 mo ons
 Wo lf
 snow y
 than king
ell ow
un es
B eth
 exper ien
 act ive
 enjoy able
 sc urry
 P iggy
 c oral
 env iron
 doll ar
 K evin
 lo c
el ope
w orm
 stream ers
 B ub
J e
ud ged
 Pat ty
 M other
 Z ack
Su zy
 ex amp
ing er
 environ ment
 shoo ed
 short s
T ree
  ill
 bru ises
 sc ent
 gr at
ust er
 L uc
 his ses
B o
 Els a
 steer ing
 sel f
 pl ugged
 warri or
 exerc ises
 visit s
 cudd les
sc reen
 R el
 dan gers
ap tain
 A r
 M in
ir l
 squ ished
 un fortunately
 s igning
 L ight
 pilot s
 disappoin t
be e
R ay
 grat itude
 applaud ing
m unk
 prov iding
 M oppy
 tick les
 R ub
al f
 t ing
 convin ced
 Els ie
 storm s
 ju d
 night s
 bad ger
G row
 choo sing
 respons ib
 K elly
 you n
 youn gest
 neare st
 activ ity
 bra ins
J oy
 coug hed
 arr anged
 explo ded
A bby
 reward ing
 F ly
 T re
C laire
 Fl oppy
erp iece
 pe ep
 sun screen
 bo nd
p r
g ood
 Tweet y
 Jo an
 K aty
as ers
 S weet
M on
 S al
 annoy ing
il ities
 soap y
s n
me ow
S plash
 lace s
 rail s
 appreci ated
 thread s
 P ine
 off ic
 t apping
 Ph il
 congratul ated
 emer ged
 heart broken
bo ards
 P ick
 we ighing
 S il
 t in
D anger
 crocodile s
 cl erk
 attem pt
 scr am
 N ancy
 examp le
Ah oy
 mess ed
 K ay
 sn ug
 A ny
 d ial
w ater
 Jon ny
 hook s
Mom ma
 chip munk
 top s
 guard ing
 bat hed
 so ot
 manag er
 T ippy
 Mic roscope
ort unately
F riends
 D e
Snow y
 mast erpiece
 B aa
et ah
 er asers
 comm on
 tip s
 fin ishes
 Tom orrow
 f et
 trot ted
 nibb led
mb ers
 dig s
 me mbers
Pe ople
 che etah
 kind er
 particular ly
 chew s
 bl ond
 rip s
 be ast
ir cle
 argum ent
L izzy
 Help ing
 fa ith
at ive
 earn ed
 forgiven ess
Ann e
 obser ving
 Jo ke
 C ici
 experien ced
chie vous
 inst antly
 cur l
 fis hes
 che aper
 J umpy
Ros ie
 Tw ist
 mis chievous
 gener osity
 c ages
 meow ing
 fo am
G r
B aa
 grand d
 store s
 A g
m ered
C indy
etch up
 matter ed
 te les
 p asses
 l imp
 sleep s
S que
io let
 breath s
 gasp s
 Fred die
ord inary
 tr ans
end ing
 r in
et tle
 hat ch
 Mom ma
 r umbling
G ot
 accompl ished
 Ho pper
 grass ho
ab ra
o ver
 teles cope
 smart est
 mat s
ac ing
 str um
 th ump
 mo at
 wh ined
 scram bled
 farm ers
 j ugg
 I ce
G ina
 dri p
 collap sed
 sy rup
Rob bie
 ang rily
 garden s
 M ore
 experience s
 sty les
 discover ies
 ve gg
 forest s
ide y
ou raged
ho le
 med als
 to r
 ty pes
 otter s
 Do es
 con qu
 mean ing
 f aint
ac ock
 hard est
 sn apping
ad abra
 f if
p it
 express ion
 move ments
er ing
 aff ect
 sur v
 bubb ly
 ch illy
 unf air
 vest s
 cour t
P inky
 score s
 extra ordinary
 tooth brush
When ever
 att itude
N ever
 Mon key
 vi br
 hor ri
 blue bird
 spear s
 k etchup
ll s
m el
M o
 B erry
 grassho pper
 behavi our
 soon er
M other
l o
 pat ches
 ha bit
 Ash ley
 poke s
 af ar
 mom ma
er ts
y d
K aren
 thick er
ie ves
 F riend
 sc ri
J acob
 slither ed
 squee zes
 class mates
 shr unk
 F le
 T erry
J on
  icky
 prick ly
 glitter ing
 exp ert
 ann ounced
 kneel ing
 R iri
 S uper
 to pp
 mark ing
 pe acock
ell ing
 cost s
ct ric
 C ally
 A choo
 zigzag s
 water mel
 th ieves
 act s
 Z og
 sk irts
 jump er
 A pp
 h ood
 Sw im
 Cl oud
 wo lves
 thumb s
 sque aky
 con cer
 co coon
P apa
 Eliz a
 Be cky
 wood cut
 bo ards
 ser vant
aff le
 che ating
 J ason
id ence
 tr ading
 r aking
b u
 explain ing
 E ric
c at
J essie
 tid ied
ri ck
 b iscuit
 luck ily
 lunch time
 A c
Fr og
 P uffy
an ced
 spill ing
 D ay
 trans form
 Mad dy
 An imal
 Dan iel
 dess erts
 U se
F ire
 P ig
â ¦
 M ine
r or
 St ill
 G ill
 mess ages
 C aptain
am ma
 m irac
r ough
 windows ill
 G illy
 ch ill
 L ung
 be ating
id y
 T ammy
 see king
o ot
 Rain bow
 L ina
 a ctor
 Will iam
 M ath
se ss
it s
pr il
 fore shadow
A ny
Blue y
 lean s
 St ep
ac les
 P inch
 H i
w ar
 watermel on
rac adabra
 Mon ster
 Frank ie
 cloth s
 de v
 fl ashing
 his sing
 T iger
F reeze
B ounce
 posit ive
 disc ouraged
 wind ing
 W il
 fun n
 woodcut ter
 compet e
 dri pped
 for ts
p op
 disagree ing
 press ing
 tea pot
 gl immering
ick ing
 vegg ies
 kangaroo s
 trust s
 tidy ing
 Pe ep
 Fl ora
 temp ted
 land ing
 do ck
 over w
 sh allow
 for med
 To oth
 r ack
 f ade
l ers
 cop s
 ele ctric
 wor st
f lowers
Not hing
 apolog y
el ing
 Sil ver
 sled s
cream s
 L ife
i ving
a i
 comet s
up id
 as s
Ow l
 Sh ark
 J elly
 M ag
 sa v
 offic ers
 convers ation
 situ ations
 p apa
B ug
  4
 Ch arlotte
 R oger
R ain
 sun s
st orm
ay e
 d ing
 overw hel
 scurry ing
 structure s
 mill er
 zip s
 pizz as
â ,
 But ter
 grandd aughter
 Ol ivia
 Am ber
 H urry
 f oggy
 Jane y
Z oe
 deser ved
 web s
 opport unity
 Mix ie
 cub s
 Y ummy
 Sp idey
 B uster
 S asha
R abbit
 difference s
 rhin o
 Go ld
 sn orted
 quack ing
 T ell
 Bird s
if ully
end ed
 he aven
F ifi
 inch worm
 unl o
 le vers
 appro ach
 in ter
 T yler
 Fel ix
 cooper ate
 seagull s
 Ru fus
 po s
 pos sess
 B oom
rag on
wel come
?â .
s ers
o f
 disappoint ment
 Sm oke
and ra
 po se
 sneak s
 bin oc
 speak s
 binoc ular
sn ap
 art work
 surf ed
 Sn ake
 answer ing
 sc owl
 short cut
 Gra nd
 rob in
 d ep
 s ipped
Cl imb
 ar rest
 In ky
 unwra pped
 Am anda
 ribb it
 am used
ss y
 re un
 appl ause
 repe ats
 pepper oni
ug ar
 check out
 key hole
 C ars
 M ae
 puppet s
 padd ling
 stri king
 visit or
L ia
D eal
 cro aked
 att acked
 C ircle
 un z
 B rian
E at
 Ot to
ors ie
 G us
 sp ooky
 groan ed
 Je an
 beaut ifully
E ach
 cons ider
 swimsuit s
 check ing
cident s
g ar
 Y ellow
u ses
 Sl inky
 Sque ak
 water s
 g room
j est
 in vent
y le
 exam s
 net s
L uke
 dry ing
 R ebecca
et s
ot ion
 shrug s
 Aunt ie
art in
ag ine
 l ump
u dy
 honk s
 heel s
 shoot s
 cheer fully
 shy ly
 so bbing
le st
 S ince
s ie
 ch in
 sh h
es ses
il i
h ny
 whimp ered
 health ier
 hang s
an ish
ic ious
 M us
M ilo
 caterpill ars
Slow ly
 magnif ying
izz es
 R atty
 squ inted
 f ries
 fascin ating
 bl amed
 F ind
ulp ture
 frustr ation
 sc ulpture
ch ing
 T ip
 Pen elope
 sh immering
ou ched
 Pe ace
 po ss
Sh aring
 ple as
 number ed
ed ic
 s uck
 nibb le
 W affle
 ba a
 flow ing
oth y
ell ie
am il
i bbles
Pe pper
 ra ked
 O ff
 gr umbled
hing s
Bu bbles
 build er
th at
rac ted
 Woo lly
 sway ing
 pet ting
 gu ards
 fa cing
e at
 det ails
 sprink le
 myster ies
 H ar
 Bo at
 en emy
 sn ort
 fl ock
se y
 texture s
 table t
 C urious
 good ies
 B arry
 po pping
 w ig
Y esterday
 stack s
 wild flowers
 Jen n
 fan s
 Gra cie
 count ries
 mar ve
 cr ops
 Tess a
 See ing
 knob s
h ow
 loc al
 bush y
 binocular s
 peep ed
 Bub u
 drown ed
 hunt ing
 ang rier
 bow ing
 ste w
 map s
 M atch
 moon light
 G low
 qu izzes
 n iece
 outfit s
 John son
 D eal
 crow ded
 mind ful
 weak er
 wh oosh
 w rench
O O
 Bee f
cy cles
 end ings
S qu
 proper ty
 hesit ation
 fl ashes
o ll
I m
amil iar
 imagination s
 O xy
 fo nd
 And rew
 un less
 ab ility
 car ts
 bo il
 Ac cidents
 R ight
 gl ared
get ic
 unf amiliar
 space s
 mic row
 fold s
 kn it
st and
 ha ven
 responsib ility
 dirt ier
th s
 P et
s aw
T una
 microw ave
 desk s
 p ouch
b ank
ib ly
 crack er
B less
 ast on
 mem ber
rn ie
 O xygen
 sw apped
 d ate
 R avi
 R ing
 Hel en
 disappear ing
 Pe ggy
 soft ened
 door step
 re bu
 wh ine
 B un
l t
f ree
W ant
C ra
 quack s
 Ch ip
 n atur
 writ er
sc ar
 listen er
 F ix
 T oo
 Sp icy
 pri v
 bl ushed
 palm s
ven ir
 not icing
po ison
 sou venir
pe at
 P ast
u pt
 law s
 dis aster
 G abby
 R es
ent r
re peat
 T ra
Rob by
 ph ones
end ant
st r
re g
 conf idence
 Co al
 C ut
al a
 B ert
 L i
A va
 overwhel med
 tim id
 stir s
 may or
Be ing
 fl ick
ing ly
 Mo le
gu ess
 P retty
as mine
 t ugging
C he
 inj ured
 satis fa
 mail ing
 owl s
 unt angle
l or
 satisfa ction
 Im mediately
 conc entr
 Wh ite
Wh ose
 B ooks
 Animal s
 Mar ch
F ly
 E at
 l im
m ers
S c
M ittens
 Wo nder
 N ora
th is
 pr ank
 B onnie
M abel
 Tri angle
 hoo ves
 Mel issa
 R un
 P ot
 K n
W iggly
Je ff
 Cle an
 Cl ose
 St artled
 fix er
 S ir
w ell
 sn ar
 cl ut
ic ate
 instrum ent
Ex cited
 Tr ucky
 sk ies
l ish
b ling
 Mat ilda
 cap t
 F aye
 H orsie
 disag re
ad ually
 rin se
 wrigg led
 Sleep y
 stain s
ik y
 cre ak
 pe cks
S usan
 Cra bby
 Hel i
 bump ing
 sh ave
 I cy
 S ing
 swir l
 bend ing
ul f
 r uff
Play ing
 chat ted
 Sc issors
Cl ose
 explor ation
cess ary
 sand pit
 fact s
 rod s
 le ver
M ake
 attach ing
 C andy
S m
 bur ger
 fool ed
 B ro
 concer ned
 clear ly
 glow s
 certain ly
May a
 rever sing
 sal on
 comp an
 la va
 fet ched
 motor cycles
 cir c
el s
 sm elt
W ally
 firef lies
 pro d
 old est
 tr oll
 somet ime
 t unes
 blond e
 challen ges
 kiss ing
R ing
 warm ed
 Bob bie
K ayla
 natur al
 unlock ing
 different ly
 L ots
 b ound
 conqu ered
 det ect
Ab racadabra
 river bank
 cup cake
 ru bb
 cut ter
urp le
er g
s a
T ara
D ino
 Fl ap
 hat es
 all ey
 Flop sy
 swir ls
 send s
 O pen
 real ise
s orry
 sens ation
Jul ia
 bang ing
 wigg ling
Is n
 C ammy
 m unched
 topp ings
 Rel iable
 hipp os
 cl ips
 f ist
 mirac le
 sway ed
 Green y
Do ctor
 br akes
 ro be
 st ings
 ha lves
 surv ive
 Cl imb
 ostri ches
 P ink
H ope
F ish
 tor to
keep ers
 emb ra
 bubb ling
 cr ushed
ber t
 other wise
ul a
M ichael
 Look ing
 tent s
 repair ing
 O f
an i
 rubb ish
 Flick er
 vine gar
 stretch y
 liz ards
 W orking
 passen ger
 E d
 torto ise
 vibr ant
 Wh ich
ast e
 p ounced
M any
 scen e
Su zie
 Gr ump
 R h
 desper ately
 moo ed
 gl ided
 b as
g r
 Light ning
 ma jest
 Sunday s
 cop ied
 calm er
 sn ip
 int ently
 p oop
 jud ges
 rag s
 coo lest
 joy fully
 wo ken
 P er
 tw el
 j ing
ra p
n et
sm elling
 lecture s
 Jo dy
 gl ob
 aston ished
 cous ins
ly n
is ible
 h ips
 Out side
 cap es
 L u
 reun ited
 goo ey
Ew w
 speak er
 success fully
 inv isible
 arri ves
 gu esses
un o
 twel ve
wh y
 bat s
 chat ting
Mike y
 Carl a
 comput ers
 good ness
ur ity
 snowfl ake
 stack ing
nd ed
m ie
 compan ion
 reapp eared
 desper ate
 pound s
 comm un
 rac er
ist ory
 park s
 luck iest
 le vel
 an k
 d ou
b ed
Z igzag
O l
 stomach s
 cricket s
 sell s
 S ugar
 g all
 d umb
 t ale
 disagre ement
 disobey ed
 Ste ven
igg les
 wind s
 g ates
 s us
N ick
 pearl s
 aw h
 awh ile
 cr isp
 ho ses
 W hee
M ore
 pops ic
 Or ange
 loyal ty
 so da
it es
L ou
 tong ues
 Ros a
L inda
 rid er
 C D
us ion
re nt
 Bl ack
O oh
 Ann abelle
 sure ly
 ab o
 L aw
p an
 occas ion
col ored
 bu nd
d es
 guit ars
izz a
 chick s
 st un
r um
d og
! â
 abo ard
 rebu ild
 seas he
 separ ating
 alligator s
 intellig ence
 R aven
 A pril
ch ief
 I ron
 V iolet
 cro ak
 cre ep
 W inky
F ound
 caut ion
Somet hing
aid s
 O ld
 C are
 learn er
 c uc
C atch
sol ut
 reveal ing
 Un i
 sp iky
 wh ines
 r ins
 esc ap
 tick ling
 S ettle
w orking
 glob e
 Ro ar
 cr ouched
 under water
 C oby
 B a
!' .
 appear ance
 ' '
 bloom s
ever se
 pr og
u dge
 stroke s
 guard ian
 hat ched
 So cky
if er
 le aking
ur ricane
se ph
st op
f ived
J an
 rout ine
eal ing
 persist ence
 zoo keepers
arn ing
 do ves
 t ant
Sn ap
Ch icky
 tap s
 adm it
 light ing
 pain ful
 squ ashes
 qu ilt
 bl ame
S leep
 tempt ing
Ah h
 deep ly
 ri pp
 P uff
 mo ld
 sh attered
T oys
 electric ity
 squir ted
Mat t
 cent re
 bur gers
 peek s
 Sp in
gg les
 sec urity
 thr one
Th ree
R alph
 allow ing
 real izing
 cook s
em on
 L iam
c on
 exch ange
Jess ica
 cho pping
ort h
us hes
ck er
 l ar
 Quick ly
Sh are
 sweet ly
 R ace
 A lf
S ophia
 rins ed
 glitt ered
 sweet er
ver ing
o ss
is app
 defe ated
 ener getic
 fu rious
 melt s
 mel ody
 build ers
 In ch
 go ggles
Z ero
S w
 tant rum
 Other wise
 choo ses
 sniff led
 Cat s
 C omet
as y
 wa ded
 contain er
 compet ing
 G iant
 Sh arp
ere my
 M ila
b ang
 lar ger
 attempt s
 und one
 serious ly
 protect ion
 R ara
 P ark
 D uke
ar ted
 l ull
 h udd
 Pinch y
 toss ing
Sh oo
 coo ed
 helicopter s
 buck les
 Wh ale
 C her
 cl uck
L izzie
 Sm o
 O ver
 T ears
S weet
solut ely
Sque aky
 courage ous
 hum med
St ill
 D in
 M a
 H or
 d edic
Mad dy
 deser ves
 rac ers
Every thing
 patient s
 mu ster
 al oud
 go d
 T hings
C urious
 Sque e
 D ragon
ap s
U se
 Liz a
 tour s
 meet s
 mar vel
 R usty
 J et
 Cr usty
Fr oggy
 wra pper
 R eddy
 H ops
 impro ving
 nice st
 wh iskers
 bo oth
 L and
Rock y
 meadow s
 St arry
 imag inary
 bo ld
