{
  "\u0000": 0,
  "\u0001": 1,
  "\u0002": 2,
  "\u0003": 3,
  "\u0004": 4,
  "\u0005": 5,
  "\u0006": 6,
  "\u0007": 7,
  "\b": 8,
  "\t": 9,
  "\n": 10,
  "\u000b": 11,
  "\f": 12,
  "\r": 13,
  "\u000e": 14,
  "\u000f": 15,
  "\u0010": 16,
  "\u0011": 17,
  "\u0012": 18,
  "\u0013": 19,
  "\u0014": 20,
  "\u0015": 21,
  "\u0016": 22,
  "\u0017": 23,
  "\u0018": 24,
  "\u0019": 25,
  "\u001a": 26,
  "\u001b": 27,
  "\u001c": 28,
  "\u001d": 29,
  "\u001e": 30,
  "\u001f": 31,
  " ": 32,
  "!": 33,
  "\"": 34,
  "#": 35,
  "$": 36,
  "%": 37,
  "&": 38,
  "'": 39,
  "(": 40,
  ")": 41,
  "*": 42,
  "+": 43,
  ",": 44,
  "-": 45,
  ".": 46,
  "/": 47,
  "0": 48,
  "1": 49,
  "2": 50,
  "3": 51,
  "4": 52,
  "5": 53,
  "6": 54,
  "7": 55,
  "8": 56,
  "9": 57,
  ":": 58,
  ";": 59,
  "<": 60,
  "=": 61,
  ">": 62,
  "?": 63,
  "@": 64,
  "A": 65,
  "B": 66,
  "C": 67,
  "D": 68,
  "E": 69,
  "F": 70,
  "G": 71,
  "H": 72,
  "I": 73,
  "J": 74,
  "K": 75,
  "L": 76,
  "M": 77,
  "N": 78,
  "O": 79,
  "P": 80,
  "Q": 81,
  "R": 82,
  "S": 83,
  "T": 84,
  "U": 85,
  "V": 86,
  "W": 87,
  "X": 88,
  "Y": 89,
  "Z": 90,
  "[": 91,
  "\\": 92,
  "]": 93,
  "^": 94,
  "_": 95,
  "`": 96,
  "a": 97,
  "b": 98,
  "c": 99,
  "d": 100,
  "e": 101,
  "f": 102,
  "g": 103,
  "h": 104,
  "i": 105,
  "j": 106,
  "k": 107,
  "l": 108,
  "m": 109,
  "n": 110,
  "o": 111,
  "p": 112,
  "q": 113,
  "r": 114,
  "s": 115,
  "t": 116,
  "u": 117,
  "v": 118,
  "w": 119,
  "x": 120,
  "y": 121,
  "z": 122,
  "{": 123,
  "|": 124,
  "}": 125,
  "~": 126,
  "": 127,
  "": 128,
  "": 129,
  "": 130,
  "": 131,
  "": 132,
  "": 133,
  "": 134,
  "": 135,
  "": 136,
  "": 137,
  "": 138,
  "": 139,
  "": 140,
  "": 141,
  "": 142,
  "": 143,
  "": 144,
  "": 145,
  "": 146,
  "": 147,
  "": 148,
  "": 149,
  "": 150,
  "": 151,
  "": 152,
  "": 153,
  "": 154,
  "": 155,
  "": 156,
  "": 157,
  "": 158,
  "": 159,
  " ": 160,
  "¡": 161,
  "¢": 162,
  "£": 163,
  "¤": 164,
  "¥": 165,
  "¦": 166,
  "§": 167,
  "¨": 168,
  "©": 169,
  "ª": 170,
  "«": 171,
  "¬": 172,
  "­": 173,
  "®": 174,
  "¯": 175,
  "°": 176,
  "±": 177,
  "²": 178,
  "³": 179,
  "´": 180,
  "µ": 181,
  "¶": 182,
  "·": 183,
  "¸": 184,
  "¹": 185,
  "º": 186,
  "»": 187,
  "¼": 188,
  "½": 189,
  "¾": 190,
  "¿": 191,
  "À": 192,
  "Á": 193,
  "Â": 194,
  "Ã": 195,
  "Ä": 196,
  "Å": 197,
  "Æ": 198,
  "Ç": 199,
  "È": 200,
  "É": 201,
  "Ê": 202,
  "Ë": 203,
  "Ì": 204,
  "Í": 205,
  "Î": 206,
  "Ï": 207,
  "Ð": 208,
  "Ñ": 209,
  "Ò": 210,
  "Ó": 211,
  "Ô": 212,
  "Õ": 213,
  "Ö": 214,
  "×": 215,
  "Ø": 216,
  "Ù": 217,
  "Ú": 218,
  "Û": 219,
  "Ü": 220,
  "Ý": 221,
  "Þ": 222,
  "ß": 223,
  "à": 224,
  "á": 225,
  "â": 226,
  "ã": 227,
  "ä": 228,
  "å": 229,
  "æ": 230,
  "ç": 231,
  "è": 232,
  "é": 233,
  "ê": 234,
  "ë": 235,
  "ì": 236,
  "í": 237,
  "î": 238,
  "ï": 239,
  "ð": 240,
  "ñ": 241,
  "ò": 242,
  "ó": 243,
  "ô": 244,
  "õ": 245,
  "ö": 246,
  "÷": 247,
  "ø": 248,
  "ù": 249,
  "ú": 250,
  "û": 251,
  "ü": 252,
  "ý": 253,
  "þ": 254,
  "ÿ": 255,
  "<|endoftext|>": 256,
  " t": 257,
  "he": 258,
  " a": 259,
  " s": 260,
  " w": 261,
  "nd": 262,
  " the": 263,
  "ed": 264,
  " b": 265,
  " to": 266,
  " and": 267,
  " h": 268,
  " f": 269,
  "in": 270,
  " T": 271,
  " wa": 272,
  "re": 273,
  "it": 274,
  "ou": 275,
  " l": 276,
  " d": 277,
  " c": 278,
  " p": 279,
  "ay": 280,
  " m": 281,
  "er": 282,
  " was": 283,
  "om": 284,
  " The": 285,
  " he": 286,
  "is": 287,
  "ar": 288,
  " n": 289,
  "im": 290,
  "on": 291,
  " sa": 292,
  "id": 293,
  "ll": 294,
  " ha": 295,
  " g": 296,
  "at": 297,
  " S": 298,
  "ing": 299,
  "ot": 300,
  "en": 301,
  "an": 302,
  "le": 303,
  "or": 304,
  "ir": 305,
  "am": 306,
  "et": 307,
  " H": 308,
  " it": 309,
  " th": 310,
  "ig": 311,
  " They": 312,
  " in": 313,
  "il": 314,
  " pl": 315,
  " He": 316,
  " \"": 317,
  "ow": 318,
  "ver": 319,
  "ri": 320,
  "ut": 321,
  " be": 322,
  " u": 323,
  " said": 324,
  " play": 325,
  "ith": 326,
  " day": 327,
  " with": 328,
  "pp": 329,
  "On": 330,
  " o": 331,
  " y": 332,
  "oo": 333,
  "ked": 334,
  " r": 335,
  " her": 336,
  "ce": 337,
  " I": 338,
  " She": 339,
  "ld": 340,
  " Tim": 341,
  " his": 342,
  " st": 343,
  "ke": 344,
  " e": 345,
  " big": 346,
  "nt": 347,
  "ck": 348,
  " you": 349,
  "very": 350,
  "st": 351,
  "ve": 352,
  "end": 353,
  " on": 354,
  "un": 355,
  " happ": 356,
  "riend": 357,
  " friend": 358,
  "all": 359,
  "ily": 360,
  " L": 361,
  " they": 362,
  " we": 363,
  " had": 364,
  " not": 365,
  " li": 366,
  " up": 367,
  "her": 368,
  " want": 369,
  " of": 370,
  "ad": 371,
  "itt": 372,
  "se": 373,
  " B": 374,
  " do": 375,
  " happy": 376,
  "ent": 377,
  " very": 378,
  " M": 379,
  "es": 380,
  " that": 381,
  " saw": 382,
  "One": 383,
  "'s": 384,
  "ould": 385,
  " mom": 386,
  " for": 387,
  " sh": 388,
  "ittle": 389,
  " little": 390,
  " so": 391,
  " she": 392,
  "ch": 393,
  "ime": 394,
  " ne": 395,
  " nam": 396,
  ".\"": 397,
  " time": 398,
  " k": 399,
  "ound": 400,
  " there": 401,
  " named": 402,
  " sm": 403,
  " bo": 404,
  " were": 405,
  " Lily": 406,
  " wanted": 407,
  " but": 408,
  "out": 409,
  "The": 410,
  " friends": 411,
  "ved": 412,
  "!\"": 413,
  "ht": 414,
  " Tom": 415,
  "ird": 416,
  "el": 417,
  " bird": 418,
  "al": 419,
  " an": 420,
  "ake": 421,
  " too": 422,
  "ome": 423,
  " It": 424,
  "ug": 425,
  "ide": 426,
  " went": 427,
  " wh": 428,
  " hel": 429,
  "Once": 430,
  " is": 431,
  " all": 432,
  " help": 433,
  "ue": 434,
  " loo": 435,
  " lo": 436,
  "ter": 437,
  " A": 438,
  " upon": 439,
  "ry": 440,
  "ore": 441,
  "ind": 442,
  " fun": 443,
  "get": 444,
  " toy": 445,
  "ill": 446,
  "ame": 447,
  " as": 448,
  " at": 449,
  "ra": 450,
  " j": 451,
  " did": 452,
  "gether": 453,
  " re": 454,
  "ur": 455,
  " se": 456,
  " together": 457,
  "ack": 458,
  " cat": 459,
  "ly": 460,
  " tre": 461,
  "ood": 462,
  "ic": 463,
  "ted": 464,
  " dog": 465,
  " could": 466,
  " can": 467,
  " their": 468,
  "ard": 469,
  "ec": 470,
  "ark": 471,
  " gir": 472,
  " played": 473,
  " him": 474,
  " ball": 475,
  "?\"": 476,
  " girl": 477,
  "way": 478,
  " ro": 479,
  " go": 480,
  "hed": 481,
  "my": 482,
  " are": 483,
  " out": 484,
  " le": 485,
  " fr": 486,
  "ain": 487,
  " kn": 488,
  "hen": 489,
  " them": 490,
  "um": 491,
  "'t": 492,
  "ax": 493,
  " sad": 494,
  "ul": 495,
  " boy": 496,
  " tree": 497,
  "other": 498,
  " have": 499,
  " man": 500,
  " cl": 501,
  " loved": 502,
  " looked": 503,
  "oug": 504,
  " found": 505,
  " sp": 506,
  " star": 507,
  " Sue": 508,
  "one": 509,
  "hing": 510,
  " sc": 511,
  " back": 512,
  "own": 513,
  " Max": 514,
  "are": 515,
  " like": 516,
  "ful": 517,
  "side": 518,
  " me": 519,
  " bec": 520,
  " park": 521,
  "ight": 522,
  "ong": 523,
  " car": 524,
  "op": 525,
  "elt": 526,
  " One": 527,
  " liked": 528,
  " would": 529,
  " make": 530,
  "round": 531,
  " la": 532,
  " fa": 533,
  " felt": 534,
  "You": 535,
  " W": 536,
  "ell": 537,
  " see": 538,
  " But": 539,
  "omet": 540,
  " asked": 541,
  "ag": 542,
  " new": 543,
  " no": 544,
  "ice": 545,
  " Sam": 546,
  "ouse": 547,
  " started": 548,
  "ared": 549,
  " came": 550,
  " Ben": 551,
  " al": 552,
  " other": 553,
  "ought": 554,
  "iled": 555,
  " somet": 556,
  " ag": 557,
  " good": 558,
  " small": 559,
  "ss": 560,
  " br": 561,
  " smiled": 562,
  " say": 563,
  "ried": 564,
  "ade": 565,
  "ings": 566,
  "ob": 567,
  "pot": 568,
  " wor": 569,
  " find": 570,
  " ex": 571,
  "ia": 572,
  " away": 573,
  "ty": 574,
  " put": 575,
  " what": 576,
  " something": 577,
  " co": 578,
  " from": 579,
  " made": 580,
  " thought": 581,
  "ened": 582,
  " home": 583,
  " playing": 584,
  "ook": 585,
  " every": 586,
  " wal": 587,
  " mu": 588,
  "uc": 589,
  "ach": 590,
  "arn": 591,
  " Spot": 592,
  " ran": 593,
  "ile": 594,
  " F": 595,
  "ie": 596,
  " J": 597,
  "ave": 598,
  " again": 599,
  " some": 600,
  " laug": 601,
  "dd": 602,
  " house": 603,
  " down": 604,
  " fl": 605,
  "king": 606,
  " took": 607,
  " scared": 608,
  " pr": 609,
  "ny": 610,
  "ure": 611,
  " toys": 612,
  " learn": 613,
  " You": 614,
  "if": 615,
  " will": 616,
  " box": 617,
  "ick": 618,
  "ret": 619,
  "ab": 620,
  "ep": 621,
  " my": 622,
  " around": 623,
  " things": 624,
  " your": 625,
  "oud": 626,
  " bl": 627,
  "uck": 628,
  " when": 629,
  "ish": 630,
  " lived": 631,
  " fe": 632,
  " then": 633,
  " sun": 634,
  "as": 635,
  " sw": 636,
  ",\"": 637,
  " ch": 638,
  "us": 639,
  "pped": 640,
  " ab": 641,
  " Mia": 642,
  "ank": 643,
  " get": 644,
  "ucy": 645,
  "Tim": 646,
  "ump": 647,
  "Th": 648,
  " lot": 649,
  "ist": 650,
  "oth": 651,
  " tried": 652,
  "ap": 653,
  " know": 654,
  " says": 655,
  " got": 656,
  "ited": 657,
  " who": 658,
  " kne": 659,
  "ust": 660,
  " many": 661,
  "nder": 662,
  " int": 663,
  " about": 664,
  "Lily": 665,
  " pret": 666,
  " dec": 667,
  " any": 668,
  " red": 669,
  " D": 670,
  "ive": 671,
  " knew": 672,
  "ace": 673,
  "ous": 674,
  " more": 675,
  "ise": 676,
  " care": 677,
  "ally": 678,
  " pic": 679,
  "au": 680,
  "qu": 681,
  " hug": 682,
  " Lucy": 683,
  " learned": 684,
  " po": 685,
  " water": 686,
  "fter": 687,
  " v": 688,
  " became": 689,
  " best": 690,
  "ause": 691,
  " op": 692,
  " gre": 693,
  " exc": 694,
  "urp": 695,
  "ways": 696,
  "â": 697,
  " outside": 698,
  " laughed": 699,
  " look": 700,
  " always": 701,
  " decid": 702,
  " show": 703,
  " un": 704,
  "ant": 705,
  " Bob": 706,
  " room": 707,
  "fe": 708,
  " decided": 709,
  " ho": 710,
  " because": 711,
  " So": 712,
  " into": 713,
  " eat": 714,
  "ite": 715,
  " jump": 716,
  " And": 717,
  " pe": 718,
  " both": 719,
  "ers": 720,
  " Mom": 721,
  " dad": 722,
  "They": 723,
  "udd": 724,
  " ke": 725,
  " one": 726,
  "nn": 727,
  " this": 728,
  " excited": 729,
  " fast": 730,
  " nice": 731,
  " E": 732,
  " feel": 733,
  "Tom": 734,
  "Yes": 735,
  " run": 736,
  " long": 737,
  " told": 738,
  " sk": 739,
  " am": 740,
  "urpr": 741,
  "our": 742,
  " inside": 743,
  "ull": 744,
  " tr": 745,
  " surpr": 746,
  " mo": 747,
  "ink": 748,
  " pretty": 749,
  "iny": 750,
  " sor": 751,
  "Wh": 752,
  " take": 753,
  "og": 754,
  " sl": 755,
  " each": 756,
  " gave": 757,
  " much": 758,
  " gra": 759,
  "lew": 760,
  "nna": 761,
  " rock": 762,
  " how": 763,
  " str": 764,
  "ara": 765,
  "imal": 766,
  " animal": 767,
  "ged": 768,
  " need": 769,
  " than": 770,
  "But": 771,
  "ven": 772,
  "etter": 773,
  " tow": 774,
  " or": 775,
  " C": 776,
  " under": 777,
  "ess": 778,
  " old": 779,
  " sorry": 780,
  "ge": 781,
  "ised": 782,
  "ro": 783,
  "urt": 784,
  " cle": 785,
  " fish": 786,
  " walked": 787,
  " clo": 788,
  "and": 789,
  " bear": 790,
  "ft": 791,
  "ase": 792,
  "ast": 793,
  " hand": 794,
  "urn": 795,
  " We": 796,
  " kind": 797,
  " His": 798,
  " te": 799,
  "here": 800,
  " happened": 801,
  " just": 802,
  " flow": 803,
  " food": 804,
  " list": 805,
  " didn": 806,
  " animals": 807,
  " hig": 808,
  "pl": 809,
  " near": 810,
  " wat": 811,
  " ide": 812,
  " try": 813,
  "ched": 814,
  " sky": 815,
  "ine": 816,
  " sn": 817,
  "ving": 818,
  " fi": 819,
  "rom": 820,
  " us": 821,
  " idea": 822,
  " better": 823,
  " Amy": 824,
  " bug": 825,
  " heard": 826,
  "gry": 827,
  " its": 828,
  " tw": 829,
  " let": 830,
  "pec": 831,
  "ate": 832,
  "able": 833,
  "ff": 834,
  " en": 835,
  " careful": 836,
  " share": 837,
  "ex": 838,
  " if": 839,
  "Thank": 840,
  "Mom": 841,
  " fly": 842,
  " stor": 843,
  "ial": 844,
  " flew": 845,
  "more": 846,
  " anymore": 847,
  " Th": 848,
  " spec": 849,
  " special": 850,
  "ion": 851,
  " com": 852,
  " lots": 853,
  " never": 854,
  " by": 855,
  "lf": 856,
  "ream": 857,
  " dan": 858,
  " bu": 859,
  " fo": 860,
  " wind": 861,
  " don": 862,
  " tal": 863,
  " clean": 864,
  "ort": 865,
  " gr": 866,
  " love": 867,
  "rm": 868,
  "ber": 869,
  " end": 870,
  "\n\n": 871,
  " Then": 872,
  "ople": 873,
  " even": 874,
  " mag": 875,
  " hard": 876,
  " shiny": 877,
  "udden": 878,
  " fore": 879,
  " over": 880,
  " cake": 881,
  "ak": 882,
  " book": 883,
  " col": 884,
  " turn": 885,
  " fam": 886,
  " bad": 887,
  " safe": 888,
  " after": 889,
  "ady": 890,
  " Anna": 891,
  "uddenly": 892,
  " people": 893,
  " proud": 894,
  " Every": 895,
  " surprised": 896,
  "pected": 897,
  "Let": 898,
  " high": 899,
  " cu": 900,
  " hurt": 901,
  " come": 902,
  "imb": 903,
  "arden": 904,
  " door": 905,
  " garden": 906,
  "bb": 907,
  " ground": 908,
  " opened": 909,
  " picked": 910,
  " loud": 911,
  " climb": 912,
  "expected": 913,
  " unexpected": 914,
  " gl": 915,
  " che": 916,
  "ild": 917,
  " im": 918,
  "As": 919,
  " give": 920,
  " way": 921,
  "ail": 922,
  "'m": 923,
  " thanked": 924,
  " color": 925,
  " blue": 926,
  " still": 927,
  " ever": 928,
  " hugged": 929,
  " From": 930,
  " call": 931,
  " far": 932,
  "ip": 933,
  " Her": 934,
  " Sara": 935,
  " When": 936,
  "No": 937,
  " off": 938,
  " magic": 939,
  "iz": 940,
  "ough": 941,
  "age": 942,
  "ummy": 943,
  " K": 944,
  " jumped": 945,
  " should": 946,
  " family": 947,
  " par": 948,
  "ool": 949,
  " kid": 950,
  " smile": 951,
  "hes": 952,
  "uff": 953,
  " place": 954,
  "kay": 955,
  " walk": 956,
  " now": 957,
  "ct": 958,
  " In": 959,
  " great": 960,
  "em": 961,
  "ture": 962,
  " qu": 963,
  "les": 964,
  " strong": 965,
  " stay": 966,
  " unt": 967,
  " sto": 968,
  "aut": 969,
  " forest": 970,
  "ane": 971,
  " bra": 972,
  "itty": 973,
  " P": 974,
  " frog": 975,
  " bro": 976,
  " until": 977,
  "oon": 978,
  " beaut": 979,
  "dy": 980,
  " squ": 981,
  " stick": 982,
  "xt": 983,
  " next": 984,
  " boat": 985,
  "lease": 986,
  "ning": 987,
  " happily": 988,
  " listen": 989,
  "aking": 990,
  " kids": 991,
  " tra": 992,
  "ies": 993,
  "iful": 994,
  " beautiful": 995,
  " app": 996,
  "th": 997,
  " helped": 998,
  " dra": 999,
  " showed": 1000,
  " clos": 1001,
  "be": 1002,
  " imp": 1003,
  " story": 1004,
  "unny": 1005,
  "oy": 1006,
  " while": 1007,
  " town": 1008,
  "rel": 1009,
  "pt": 1010,
  " rain": 1011,
  "ress": 1012,
  " picture": 1013,
  " being": 1014,
  " rem": 1015,
  " everyone": 1016,
  "It": 1017,
  "ary": 1018,
  "ree": 1019,
  " mor": 1020,
  " hat": 1021,
  " called": 1022,
  " met": 1023,
  " stopped": 1024,
  " ad": 1025,
  " game": 1026,
  "Now": 1027,
  "He": 1028,
  "Can": 1029,
  " angry": 1030,
  "ger": 1031,
  "uffy": 1032,
  " open": 1033,
  " wo": 1034,
  " truck": 1035,
  " keep": 1036,
  " soft": 1037,
  "When": 1038,
  " cry": 1039,
  " yummy": 1040,
  " lost": 1041,
  " bed": 1042,
  " Let": 1043,
  " Sally": 1044,
  " warm": 1045,
  "by": 1046,
  "vent": 1047,
  " brave": 1048,
  " mouse": 1049,
  " Wh": 1050,
  " ate": 1051,
  " Kitty": 1052,
  "ished": 1053,
  " de": 1054,
  "fore": 1055,
  " doll": 1056,
  "so": 1057,
  " couldn": 1058,
  " watch": 1059,
  " leave": 1060,
  " also": 1061,
  "dded": 1062,
  " fell": 1063,
  " green": 1064,
  " face": 1065,
  " two": 1066,
  "gan": 1067,
  "iss": 1068,
  " flowers": 1069,
  "bit": 1070,
  "What": 1071,
  " R": 1072,
  "ble": 1073,
  " noise": 1074,
  "abbit": 1075,
  "irst": 1076,
  "owl": 1077,
  " where": 1078,
  "az": 1079,
  "ock": 1080,
  " soon": 1081,
  "self": 1082,
  " slide": 1083,
  " rabbit": 1084,
  " hole": 1085,
  "luffy": 1086,
  " before": 1087,
  "irrel": 1088,
  " pus": 1089,
  "ired": 1090,
  " sat": 1091,
  "illy": 1092,
  " hear": 1093,
  " use": 1094,
  "â": 1095,
  "Hi": 1096,
  " pa": 1097,
  " kept": 1098,
  "â": 1099,
  "That": 1100,
  " squirrel": 1101,
  "ear": 1102,
  "Then": 1103,
  "ma": 1104,
  " nodded": 1105,
  " expl": 1106,
  " store": 1107,
  " cook": 1108,
  " hands": 1109,
  "Look": 1110,
  " birds": 1111,
  " pain": 1112,
  " going": 1113,
  " funny": 1114,
  " having": 1115,
  "day": 1116,
  " sing": 1117,
  "aybe": 1118,
  "uch": 1119,
  " ey": 1120,
  "aug": 1121,
  " catch": 1122,
  "aught": 1123,
  " Can": 1124,
  " Fluffy": 1125,
  "uit": 1126,
  " yell": 1127,
  " think": 1128,
  "leep": 1129,
  " cra": 1130,
  " fin": 1131,
  "Ben": 1132,
  " bre": 1133,
  " fix": 1134,
  " tired": 1135,
  " bunny": 1136,
  " used": 1137,
  " looking": 1138,
  " bus": 1139,
  "ange": 1140,
  "air": 1141,
  " work": 1142,
  " wr": 1143,
  " our": 1144,
  " pull": 1145,
  "We": 1146,
  " thr": 1147,
  "thing": 1148,
  " Now": 1149,
  " wait": 1150,
  " kit": 1151,
  " sound": 1152,
  "ting": 1153,
  " jo": 1154,
  " has": 1155,
  " G": 1156,
  " mean": 1157,
  " pond": 1158,
  "ember": 1159,
  " beh": 1160,
  " dr": 1161,
  " sunny": 1162,
  "led": 1163,
  " others": 1164,
  " ask": 1165,
  "ng": 1166,
  "chen": 1167,
  " kitchen": 1168,
  " talk": 1169,
  " flo": 1170,
  " dif": 1171,
  " pie": 1172,
  "rew": 1173,
  " Jo": 1174,
  " head": 1175,
  " real": 1176,
  " first": 1177,
  " tri": 1178,
  " mommy": 1179,
  " eyes": 1180,
  "ello": 1181,
  " import": 1182,
  "Hello": 1183,
  " fav": 1184,
  "ath": 1185,
  "joy": 1186,
  " z": 1187,
  " remember": 1188,
  " right": 1189,
  " flower": 1190,
  " con": 1191,
  " mess": 1192,
  " party": 1193,
  " cold": 1194,
  " Do": 1195,
  " vo": 1196,
  " swe": 1197,
  "ious": 1198,
  " sand": 1199,
  " â": 1200,
  "ac": 1201,
  "orn": 1202,
  " race": 1203,
  " curi": 1204,
  "imes": 1205,
  " important": 1206,
  " duck": 1207,
  " moral": 1208,
  " shared": 1209,
  "zy": 1210,
  "ount": 1211,
  " Jack": 1212,
  " ice": 1213,
  " okay": 1214,
  " advent": 1215,
  " worked": 1216,
  "llow": 1217,
  "At": 1218,
  " enjoy": 1219,
  " dress": 1220,
  " bright": 1221,
  " making": 1222,
  " curious": 1223,
  " own": 1224,
  " tall": 1225,
  " dir": 1226,
  " hop": 1227,
  "reed": 1228,
  " hid": 1229,
  " favor": 1230,
  " ri": 1231,
  "hn": 1232,
  " sleep": 1233,
  " dis": 1234,
  "Wow": 1235,
  " favorite": 1236,
  " thing": 1237,
  " began": 1238,
  " mon": 1239,
  " bag": 1240,
  " hill": 1241,
  "Don": 1242,
  " cla": 1243,
  " draw": 1244,
  " rest": 1245,
  " here": 1246,
  " yard": 1247,
  " tell": 1248,
  " Fin": 1249,
  "ster": 1250,
  " watched": 1251,
  "que": 1252,
  " follow": 1253,
  " move": 1254,
  " bel": 1255,
  "ect": 1256,
  " cut": 1257,
  " night": 1258,
  " agreed": 1259,
  " pick": 1260,
  "co": 1261,
  " block": 1262,
  " hun": 1263,
  "aper": 1264,
  "lly": 1265,
  " stop": 1266,
  " behind": 1267,
  " This": 1268,
  " surprise": 1269,
  "ied": 1270,
  " sho": 1271,
  " hot": 1272,
  "After": 1273,
  " table": 1274,
  " grass": 1275,
  " worry": 1276,
  " dark": 1277,
  " trees": 1278,
  " voice": 1279,
  " walking": 1280,
  "fere": 1281,
  " floor": 1282,
  " farm": 1283,
  " lion": 1284,
  " top": 1285,
  " differe": 1286,
  " please": 1287,
  " ru": 1288,
  " song": 1289,
  " butter": 1290,
  " tail": 1291,
  " sweet": 1292,
  "Max": 1293,
  " shout": 1294,
  " colors": 1295,
  " read": 1296,
  " Dad": 1297,
  " lady": 1298,
  " forg": 1299,
  "isy": 1300,
  " leaves": 1301,
  " closer": 1302,
  "ign": 1303,
  " cars": 1304,
  " turned": 1305,
  " needed": 1306,
  " tast": 1307,
  "Why": 1308,
  "aring": 1309,
  " wood": 1310,
  " cried": 1311,
  " different": 1312,
  " laugh": 1313,
  " del": 1314,
  " piece": 1315,
  "â": 1316,
  "ered": 1317,
  " Mr": 1318,
  " roll": 1319,
  " adventure": 1320,
  " fire": 1321,
  " does": 1322,
  "ike": 1323,
  " cr": 1324,
  " hungry": 1325,
  " hair": 1326,
  " Suddenly": 1327,
  " paper": 1328,
  " feeling": 1329,
  " yellow": 1330,
  " full": 1331,
  "bo": 1332,
  " prin": 1333,
  "Sue": 1334,
  " touch": 1335,
  " As": 1336,
  "Anna": 1337,
  "Sam": 1338,
  " wet": 1339,
  " friendly": 1340,
  " per": 1341,
  "oom": 1342,
  "ken": 1343,
  "cked": 1344,
  "ached": 1345,
  " swing": 1346,
  " fruit": 1347,
  "ient": 1348,
  " broken": 1349,
  " ready": 1350,
  "bye": 1351,
  "ppy": 1352,
  " prom": 1353,
  " That": 1354,
  " another": 1355,
  " light": 1356,
  " pretend": 1357,
  " dance": 1358,
  "ater": 1359,
  " climbed": 1360,
  "where": 1361,
  " listened": 1362,
  " Bobo": 1363,
  " danc": 1364,
  " running": 1365,
  " only": 1366,
  " plan": 1367,
  " gone": 1368,
  " swim": 1369,
  "bbed": 1370,
  "Suddenly": 1371,
  "sh": 1372,
  " train": 1373,
  "ila": 1374,
  "ndma": 1375,
  "Sara": 1376,
  " Jane": 1377,
  " close": 1378,
  "av": 1379,
  "She": 1380,
  " smell": 1381,
  "So": 1382,
  "aby": 1383,
  " amaz": 1384,
  " hold": 1385,
  " blocks": 1386,
  " wonder": 1387,
  " Timmy": 1388,
  " repl": 1389,
  " All": 1390,
  " butterf": 1391,
  " sees": 1392,
  " reached": 1393,
  " wall": 1394,
  " pu": 1395,
  "oney": 1396,
  "red": 1397,
  " slow": 1398,
  " helping": 1399,
  " dri": 1400,
  " cream": 1401,
  " cool": 1402,
  " glad": 1403,
  "af": 1404,
  " ant": 1405,
  " less": 1406,
  " been": 1407,
  " goodbye": 1408,
  " ac": 1409,
  " fight": 1410,
  "ather": 1411,
  "Mia": 1412,
  " pushed": 1413,
  "iced": 1414,
  " fair": 1415,
  " must": 1416,
  " hide": 1417,
  " moment": 1418,
  " window": 1419,
  " O": 1420,
  " sit": 1421,
  " balloon": 1422,
  " snow": 1423,
  " child": 1424,
  " explore": 1425,
  " Everyone": 1426,
  " ar": 1427,
  " wished": 1428,
  " baby": 1429,
  " done": 1430,
  " wag": 1431,
  " ste": 1432,
  " buy": 1433,
  " stuck": 1434,
  " perf": 1435,
  " thank": 1436,
  " might": 1437,
  "icy": 1438,
  " name": 1439,
  "ized": 1440,
  " trying": 1441,
  " bit": 1442,
  " coming": 1443,
  " bar": 1444,
  " quick": 1445,
  " fall": 1446,
  " apple": 1447,
  "ash": 1448,
  " scary": 1449,
  " looks": 1450,
  " build": 1451,
  " doing": 1452,
  " win": 1453,
  " underst": 1454,
  "aisy": 1455,
  " din": 1456,
  " dream": 1457,
  " dirty": 1458,
  " held": 1459,
  "ames": 1460,
  " books": 1461,
  " mar": 1462,
  "In": 1463,
  " butterfly": 1464,
  " left": 1465,
  " shouted": 1466,
  " count": 1467,
  " replied": 1468,
  "avy": 1469,
  " reach": 1470,
  " tiny": 1471,
  " through": 1472,
  "ott": 1473,
  " dro": 1474,
  " why": 1475,
  " air": 1476,
  " bran": 1477,
  " land": 1478,
  "key": 1479,
  " three": 1480,
  " pulled": 1481,
  " spl": 1482,
  " grow": 1483,
  " treat": 1484,
  " brother": 1485,
  " wise": 1486,
  " woods": 1487,
  " sure": 1488,
  "'re": 1489,
  " chair": 1490,
  "ix": 1491,
  " mat": 1492,
  "ins": 1493,
  " seen": 1494,
  " pink": 1495,
  " clapped": 1496,
  " plant": 1497,
  "ely": 1498,
  " owl": 1499,
  " cup": 1500,
  "ield": 1501,
  " sometimes": 1502,
  "andy": 1503,
  " fill": 1504,
  " cloud": 1505,
  "ask": 1506,
  " swam": 1507,
  "outh": 1508,
  " job": 1509,
  " colorful": 1510,
  " remembered": 1511,
  " bigger": 1512,
  " nest": 1513,
  " mouth": 1514,
  "pe": 1515,
  "Okay": 1516,
  " lesson": 1517,
  " join": 1518,
  " cre": 1519,
  "ph": 1520,
  " There": 1521,
  "oup": 1522,
  "room": 1523,
  "art": 1524,
  " waved": 1525,
  "uddy": 1526,
  " grabbed": 1527,
  " stayed": 1528,
  "Oh": 1529,
  " paint": 1530,
  "This": 1531,
  " clot": 1532,
  " cont": 1533,
  " clothes": 1534,
  " ve": 1535,
  "ower": 1536,
  " After": 1537,
  " waited": 1538,
  " quickly": 1539,
  "cle": 1540,
  " word": 1541,
  " broke": 1542,
  "ucky": 1543,
  " games": 1544,
  " cast": 1545,
  " blew": 1546,
  " gent": 1547,
  " Mommy": 1548,
  " enjoyed": 1549,
  " noticed": 1550,
  "Jo": 1551,
  "ries": 1552,
  "ation": 1553,
  " set": 1554,
  " likes": 1555,
  " pictures": 1556,
  "ton": 1557,
  "de": 1558,
  " sea": 1559,
  " heavy": 1560,
  " mus": 1561,
  " alone": 1562,
  " gif": 1563,
  "asure": 1564,
  " anything": 1565,
  " spot": 1566,
  " miss": 1567,
  " hopped": 1568,
  " world": 1569,
  " turns": 1570,
  "orm": 1571,
  " year": 1572,
  "der": 1573,
  " bott": 1574,
  " pat": 1575,
  " pot": 1576,
  " pen": 1577,
  "lc": 1578,
  "Her": 1579,
  " mix": 1580,
  " arm": 1581,
  " bike": 1582,
  " tight": 1583,
  " everywhere": 1584,
  " won": 1585,
  "Lucy": 1586,
  " tower": 1587,
  " threw": 1588,
  " himself": 1589,
  " followed": 1590,
  " Buddy": 1591,
  " ride": 1592,
  "man": 1593,
  "less": 1594,
  " ju": 1595,
  " je": 1596,
  "amp": 1597,
  "Bob": 1598,
  "ape": 1599,
  " comp": 1600,
  " key": 1601,
  "row": 1602,
  "\".": 1603,
  " white": 1604,
  "ctor": 1605,
  " wrong": 1606,
  " Daisy": 1607,
  " makes": 1608,
  " What": 1609,
  " break": 1610,
  " black": 1611,
  "arent": 1612,
  "ee": 1613,
  "ner": 1614,
  "Spot": 1615,
  "Do": 1616,
  " deep": 1617,
  "thy": 1618,
  " music": 1619,
  " pol": 1620,
  " delic": 1621,
  "cess": 1622,
  "ued": 1623,
  " forgot": 1624,
  " bee": 1625,
  " parent": 1626,
  " castle": 1627,
  "ves": 1628,
  "olly": 1629,
  " em": 1630,
  "iet": 1631,
  " wear": 1632,
  " hit": 1633,
  "ister": 1634,
  "oun": 1635,
  " quiet": 1636,
  " round": 1637,
  "ance": 1638,
  " stu": 1639,
  " danced": 1640,
  " vis": 1641,
  "ully": 1642,
  " wants": 1643,
  " leaf": 1644,
  " monster": 1645,
  " nap": 1646,
  " John": 1647,
  " understand": 1648,
  "ang": 1649,
  " bowl": 1650,
  "os": 1651,
  "rot": 1652,
  "ren": 1653,
  " bor": 1654,
  " talked": 1655,
  "itten": 1656,
  " dry": 1657,
  " faster": 1658,
  " cookies": 1659,
  " brought": 1660,
  "fully": 1661,
  " leg": 1662,
  "ross": 1663,
  " mum": 1664,
  "zz": 1665,
  " side": 1666,
  "ts": 1667,
  "From": 1668,
  " sign": 1669,
  " Inside": 1670,
  " smart": 1671,
  "cy": 1672,
  " rocks": 1673,
  " someone": 1674,
  "His": 1675,
  " poin": 1676,
  " sec": 1677,
  " sharing": 1678,
  " fox": 1679,
  " well": 1680,
  " res": 1681,
  " rel": 1682,
  " happen": 1683,
  " button": 1684,
  " branch": 1685,
  " Lila": 1686,
  " really": 1687,
  " finished": 1688,
  "ence": 1689,
  "ards": 1690,
  " dinner": 1691,
  " sister": 1692,
  " flying": 1693,
  "eddy": 1694,
  " contin": 1695,
  " worried": 1696,
  " ele": 1697,
  " To": 1698,
  " visit": 1699,
  " Maybe": 1700,
  " beach": 1701,
  " que": 1702,
  " secret": 1703,
  " el": 1704,
  " Sarah": 1705,
  " king": 1706,
  "John": 1707,
  "gy": 1708,
  " today": 1709,
  " perfect": 1710,
  " river": 1711,
  " everything": 1712,
  " silly": 1713,
  " shin": 1714,
  " Joe": 1715,
  " danger": 1716,
  "ipp": 1717,
  " children": 1718,
  " gu": 1719,
  " Soon": 1720,
  " field": 1721,
  " filled": 1722,
  " fur": 1723,
  " else": 1724,
  " smiles": 1725,
  " welc": 1726,
  " At": 1727,
  " wish": 1728,
  " Em": 1729,
  "While": 1730,
  " sang": 1731,
  " gi": 1732,
  "ze": 1733,
  " pudd": 1734,
  " snack": 1735,
  " eating": 1736,
  " realized": 1737,
  " pieces": 1738,
  " promised": 1739,
  "ord": 1740,
  " spr": 1741,
  " pig": 1742,
  " free": 1743,
  " continued": 1744,
  " bite": 1745,
  "ead": 1746,
  " parents": 1747,
  " carefully": 1748,
  "ated": 1749,
  "itting": 1750,
  " ear": 1751,
  "Just": 1752,
  " jar": 1753,
  "Maybe": 1754,
  " cow": 1755,
  "Amy": 1756,
  " blank": 1757,
  " drag": 1758,
  "stead": 1759,
  " orange": 1760,
  " mud": 1761,
  " crying": 1762,
  " blanket": 1763,
  " enough": 1764,
  " rolled": 1765,
  "cket": 1766,
  " soup": 1767,
  " sail": 1768,
  " purp": 1769,
  "imi": 1770,
  " yes": 1771,
  "ale": 1772,
  " drink": 1773,
  " snake": 1774,
  "ses": 1775,
  " boun": 1776,
  " pet": 1777,
  " crab": 1778,
  " throw": 1779,
  " laughing": 1780,
  " fairy": 1781,
  " words": 1782,
  " amazing": 1783,
  " bath": 1784,
  "ich": 1785,
  " purple": 1786,
  " Z": 1787,
  " without": 1788,
  "ire": 1789,
  " bottle": 1790,
  " Billy": 1791,
  " gift": 1792,
  " grandma": 1793,
  "Fin": 1794,
  "used": 1795,
  "ons": 1796,
  " past": 1797,
  " money": 1798,
  "iver": 1799,
  "fort": 1800,
  " mail": 1801,
  " Gra": 1802,
  " barked": 1803,
  " wagged": 1804,
  " att": 1805,
  "chool": 1806,
  " monkey": 1807,
  " doctor": 1808,
  "unch": 1809,
  " brown": 1810,
  " moved": 1811,
  "ises": 1812,
  " asks": 1813,
  " getting": 1814,
  " closed": 1815,
  " whe": 1816,
  " welcome": 1817,
  " su": 1818,
  " candy": 1819,
  " school": 1820,
  " morning": 1821,
  " owner": 1822,
  "gg": 1823,
  " lon": 1824,
  " mother": 1825,
  " higher": 1826,
  " sitting": 1827,
  " treasure": 1828,
  ".â": 1829,
  " smo": 1830,
  "!â": 1831,
  " dangerous": 1832,
  " lonely": 1833,
  " Ch": 1834,
  " living": 1835,
  " apples": 1836,
  "ush": 1837,
  " shop": 1838,
  "ased": 1839,
  " strange": 1840,
  "vel": 1841,
  " shining": 1842,
  " road": 1843,
  "ere": 1844,
  " Tommy": 1845,
  " creat": 1846,
  "una": 1847,
  " paw": 1848,
  " ra": 1849,
  "ey": 1850,
  " shoes": 1851,
  " pre": 1852,
  "ible": 1853,
  " -": 1854,
  " stre": 1855,
  " talking": 1856,
  "althy": 1857,
  " caught": 1858,
  " egg": 1859,
  "ol": 1860,
  " pass": 1861,
  "me": 1862,
  " lake": 1863,
  " runs": 1864,
  " buck": 1865,
  " letter": 1866,
  " wings": 1867,
  " chee": 1868,
  "fish": 1869,
  " mad": 1870,
  " fan": 1871,
  "asket": 1872,
  " basket": 1873,
  "ass": 1874,
  " dragon": 1875,
  "app": 1876,
  "Mommy": 1877,
  "set": 1878,
  "cks": 1879,
  " stone": 1880,
  " thinks": 1881,
  " stand": 1882,
  " delicious": 1883,
  " nose": 1884,
  " puddle": 1885,
  " tom": 1886,
  " Bl": 1887,
  " Mimi": 1888,
  " belie": 1889,
  " farmer": 1890,
  " same": 1891,
  " years": 1892,
  "board": 1893,
  " teddy": 1894,
  " bat": 1895,
  "isk": 1896,
  "itch": 1897,
  " mine": 1898,
  " sear": 1899,
  " coat": 1900,
  "ches": 1901,
  "igh": 1902,
  " days": 1903,
  " bring": 1904,
  " gentle": 1905,
  " fit": 1906,
  " start": 1907,
  " finally": 1908,
  " whist": 1909,
  " cray": 1910,
  "igg": 1911,
  " scream": 1912,
  " kite": 1913,
  " pill": 1914,
  "phant": 1915,
  "arm": 1916,
  " vill": 1917,
  " cho": 1918,
  " singing": 1919,
  "ella": 1920,
  "sw": 1921,
  "ined": 1922,
  " tasty": 1923,
  " ph": 1924,
  " ben": 1925,
  " trou": 1926,
  " shell": 1927,
  " herself": 1928,
  " hoped": 1929,
  " answ": 1930,
  " wore": 1931,
  " swings": 1932,
  "sy": 1933,
  " hor": 1934,
  " belong": 1935,
  "Please": 1936,
  " push": 1937,
  " bush": 1938,
  "iskers": 1939,
  " carrot": 1940,
  " arri": 1941,
  "aughty": 1942,
  " teach": 1943,
  "bow": 1944,
  "ract": 1945,
  " naughty": 1946,
  " elephant": 1947,
  " dropped": 1948,
  " shap": 1949,
  " coll": 1950,
  "ier": 1951,
  "sc": 1952,
  " teac": 1953,
  "emy": 1954,
  " woke": 1955,
  "ball": 1956,
  " pile": 1957,
  " hiding": 1958,
  " cour": 1959,
  "isa": 1960,
  "erry": 1961,
  " touc": 1962,
  " min": 1963,
  " puppy": 1964,
  "'ll": 1965,
  " seem": 1966,
  "llie": 1967,
  " twins": 1968,
  "ama": 1969,
  " lunch": 1970,
  " bow": 1971,
  " sack": 1972,
  " pers": 1973,
  " course": 1974,
  " cheered": 1975,
  " shapes": 1976,
  " Jen": 1977,
  " grew": 1978,
  "fused": 1979,
  " rope": 1980,
  " village": 1981,
  "irth": 1982,
  "irthday": 1983,
  " juice": 1984,
  "ipped": 1985,
  " rainbow": 1986,
  " spin": 1987,
  "OK": 1988,
  " shook": 1989,
  "Jack": 1990,
  " spoon": 1991,
  " bench": 1992,
  " street": 1993,
  " fence": 1994,
  " cute": 1995,
  " Fred": 1996,
  " rob": 1997,
  " nut": 1998,
  " cheese": 1999,
  " prob": 2000,
  " touched": 2001,
  "idge": 2002,
  "col": 2003,
  " joy": 2004,
  " Whiskers": 2005,
  " arrived": 2006,
  " seed": 2007,
  " war": 2008,
  " teacher": 2009,
  " corn": 2010,
  "Good": 2011,
  " forever": 2012,
  " able": 2013,
  " bell": 2014,
  " few": 2015,
  " carry": 2016,
  " most": 2017,
  " plane": 2018,
  " Blue": 2019,
  "lem": 2020,
  " eas": 2021,
  " sounds": 2022,
  "lla": 2023,
  " des": 2024,
  " spo": 2025,
  " problem": 2026,
  " birthday": 2027,
  " inc": 2028,
  " power": 2029,
  "umb": 2030,
  "br": 2031,
  "\n ": 2032,
  " bugs": 2033,
  "ilk": 2034,
  " wonderful": 2035,
  " dolls": 2036,
  " busy": 2037,
  "ato": 2038,
  "irp": 2039,
  "eb": 2040,
  " wra": 2041,
  " promise": 2042,
  " Thank": 2043,
  " feels": 2044,
  "ian": 2045,
  " Emma": 2046,
  "eter": 2047,
  " bread": 2048,
  " neck": 2049,
  "Finally": 2050,
  " milk": 2051,
  " robot": 2052,
  " rec": 2053,
  " shy": 2054,
  "ountain": 2055,
  " kiss": 2056,
  "irt": 2057,
  " heart": 2058,
  " band": 2059,
  " cave": 2060,
  " pocket": 2061,
  "ub": 2062,
  " helpful": 2063,
  "gly": 2064,
  " slowly": 2065,
  " believe": 2066,
  " shake": 2067,
  "umpy": 2068,
  "eared": 2069,
  " patient": 2070,
  " pop": 2071,
  " ob": 2072,
  "arp": 2073,
  " live": 2074,
  " storm": 2075,
  " holding": 2076,
  " ugly": 2077,
  " towards": 2078,
  " upset": 2079,
  " turt": 2080,
  " shr": 2081,
  "adow": 2082,
  " cover": 2083,
  " kitten": 2084,
  "ost": 2085,
  " Remy": 2086,
  " sharp": 2087,
  " disapp": 2088,
  " stories": 2089,
  " suc": 2090,
  " honey": 2091,
  "ove": 2092,
  " Bella": 2093,
  "read": 2094,
  " noises": 2095,
  " Le": 2096,
  " balls": 2097,
  " cir": 2098,
  " spark": 2099,
  " gray": 2100,
  " dist": 2101,
  " dirt": 2102,
  "oggy": 2103,
  " late": 2104,
  " driver": 2105,
  " seat": 2106,
  " bucket": 2107,
  " meet": 2108,
  " young": 2109,
  " amazed": 2110,
  " turtle": 2111,
  "alm": 2112,
  " spid": 2113,
  " treats": 2114,
  " magical": 2115,
  "unt": 2116,
  "ator": 2117,
  " glow": 2118,
  " seek": 2119,
  " zoom": 2120,
  " lem": 2121,
  " sandw": 2122,
  "fortable": 2123,
  "umber": 2124,
  " trip": 2125,
  " mist": 2126,
  "ourn": 2127,
  " splas": 2128,
  " mark": 2129,
  " journ": 2130,
  " fold": 2131,
  " mach": 2132,
  " puzz": 2133,
  " part": 2134,
  "ling": 2135,
  " horse": 2136,
  " organ": 2137,
  " wild": 2138,
  " princess": 2139,
  "pping": 2140,
  "oose": 2141,
  " cookie": 2142,
  "Sure": 2143,
  "ens": 2144,
  " hugs": 2145,
  " Mark": 2146,
  " taking": 2147,
  "ung": 2148,
  " wheel": 2149,
  "epend": 2150,
  " cloth": 2151,
  " Lisa": 2152,
  " sug": 2153,
  " instead": 2154,
  " bubb": 2155,
  " string": 2156,
  " net": 2157,
  " drove": 2158,
  "iling": 2159,
  " rude": 2160,
  " huge": 2161,
  " Jim": 2162,
  " coin": 2163,
  " stars": 2164,
  " fighting": 2165,
  "Be": 2166,
  " spicy": 2167,
  " lucky": 2168,
  "Of": 2169,
  " craw": 2170,
  "Hey": 2171,
  " bone": 2172,
  " inv": 2173,
  " Grandma": 2174,
  "ors": 2175,
  "not": 2176,
  " ca": 2177,
  "pper": 2178,
  " forget": 2179,
  "up": 2180,
  " di": 2181,
  "aur": 2182,
  " sal": 2183,
  " Finally": 2184,
  " cannot": 2185,
  " whistle": 2186,
  " card": 2187,
  " sick": 2188,
  " path": 2189,
  " cou": 2190,
  " spider": 2191,
  " wide": 2192,
  "Lila": 2193,
  " foot": 2194,
  " snowman": 2195,
  " songs": 2196,
  " life": 2197,
  " pillow": 2198,
  "ize": 2199,
  "ular": 2200,
  " Just": 2201,
  "Later": 2202,
  "est": 2203,
  " Ann": 2204,
  "ert": 2205,
  " fixed": 2206,
  " giant": 2207,
  "oph": 2208,
  "rill": 2209,
  " nod": 2210,
  " boss": 2211,
  " comes": 2212,
  " last": 2213,
  " joke": 2214,
  " moon": 2215,
  " taste": 2216,
  "den": 2217,
  " machine": 2218,
  " grumpy": 2219,
  " wave": 2220,
  " thin": 2221,
  " drive": 2222,
  " cart": 2223,
  " ash": 2224,
  " ser": 2225,
  " grab": 2226,
  " peace": 2227,
  "lower": 2228,
  " daddy": 2229,
  " On": 2230,
  " Leo": 2231,
  "ery": 2232,
  " sel": 2233,
  " shelf": 2234,
  " hidden": 2235,
  "erest": 2236,
  " suddenly": 2237,
  " wasn": 2238,
  " write": 2239,
  " landed": 2240,
  " confused": 2241,
  " ring": 2242,
  " change": 2243,
  " worm": 2244,
  " interest": 2245,
  " chased": 2246,
  "oop": 2247,
  " fruits": 2248,
  " sour": 2249,
  "ity": 2250,
  " myster": 2251,
  " bark": 2252,
  " rad": 2253,
  " smooth": 2254,
  " Come": 2255,
  " adventures": 2256,
  " val": 2257,
  " stepped": 2258,
  " fle": 2259,
  "ope": 2260,
  " oven": 2261,
  " takes": 2262,
  " missed": 2263,
  " selfish": 2264,
  "kin": 2265,
  " sheep": 2266,
  " messy": 2267,
  "To": 2268,
  " across": 2269,
  " ent": 2270,
  " exp": 2271,
  "to": 2272,
  " ce": 2273,
  " later": 2274,
  "elly": 2275,
  " N": 2276,
  "ife": 2277,
  " sticks": 2278,
  " tie": 2279,
  "St": 2280,
  "ever": 2281,
  " Luna": 2282,
  " step": 2283,
  " bought": 2284,
  " drew": 2285,
  " tea": 2286,
  "pect": 2287,
  " ban": 2288,
  "irpy": 2289,
  "box": 2290,
  "?â": 2291,
  " wash": 2292,
  " lay": 2293,
  " pour": 2294,
  " beak": 2295,
  "ose": 2296,
  " jog": 2297,
  " grate": 2298,
  " ducks": 2299,
  " spe": 2300,
  " legs": 2301,
  "ugg": 2302,
  " fil": 2303,
  " Bu": 2304,
  " emp": 2305,
  "mer": 2306,
  " hope": 2307,
  " empty": 2308,
  " slid": 2309,
  " feather": 2310,
  " sleepy": 2311,
  " drum": 2312,
  "amed": 2313,
  "ars": 2314,
  "eth": 2315,
  " zoo": 2316,
  " pan": 2317,
  " phone": 2318,
  " grateful": 2319,
  " fing": 2320,
  "ions": 2321,
  " lemon": 2322,
  "let": 2323,
  " Cat": 2324,
  " clever": 2325,
  " Molly": 2326,
  " smelly": 2327,
  " imag": 2328,
  " splash": 2329,
  " interesting": 2330,
  " Jill": 2331,
  " save": 2332,
  " chick": 2333,
  " calm": 2334,
  " med": 2335,
  " watching": 2336,
  "Soon": 2337,
  "izzy": 2338,
  "izz": 2339,
  " plate": 2340,
  " ign": 2341,
  "yard": 2342,
  " clouds": 2343,
  " banan": 2344,
  " line": 2345,
  " faces": 2346,
  " ba": 2347,
  " act": 2348,
  " lift": 2349,
  " though": 2350,
  " wolf": 2351,
  " backyard": 2352,
  "wel": 2353,
  " seemed": 2354,
  " dogs": 2355,
  " spray": 2356,
  "Come": 2357,
  " prot": 2358,
  " whole": 2359,
  " mot": 2360,
  " fancy": 2361,
  " Daddy": 2362,
  " quest": 2363,
  " arms": 2364,
  " puzzle": 2365,
  " healthy": 2366,
  " supp": 2367,
  "ward": 2368,
  " finish": 2369,
  "erly": 2370,
  " along": 2371,
  "llo": 2372,
  " rocket": 2373,
  " explain": 2374,
  "dge": 2375,
  " easy": 2376,
  " jewel": 2377,
  "ont": 2378,
  " pract": 2379,
  " jelly": 2380,
  " Chirpy": 2381,
  " tid": 2382,
  " fake": 2383,
  " crayons": 2384,
  " wondered": 2385,
  " maybe": 2386,
  " scar": 2387,
  " ship": 2388,
  " nothing": 2389,
  "onest": 2390,
  " emb": 2391,
  "iger": 2392,
  " pool": 2393,
  " longer": 2394,
  " anyone": 2395,
  " Be": 2396,
  " Jerry": 2397,
  "ually": 2398,
  " front": 2399,
  " working": 2400,
  " gives": 2401,
  "irr": 2402,
  " pack": 2403,
  " such": 2404,
  " Bunny": 2405,
  "ocked": 2406,
  "ment": 2407,
  " bossy": 2408,
  " Doggy": 2409,
  " trouble": 2410,
  " smelled": 2411,
  " saved": 2412,
  " pin": 2413,
  "rass": 2414,
  " neigh": 2415,
  "arrass": 2416,
  "iting": 2417,
  " honest": 2418,
  " av": 2419,
  "arge": 2420,
  " embarrass": 2421,
  " van": 2422,
  " forgive": 2423,
  " tidy": 2424,
  " weak": 2425,
  "urse": 2426,
  " puts": 2427,
  "unk": 2428,
  " kick": 2429,
  " shirt": 2430,
  " With": 2431,
  " mind": 2432,
  " Ollie": 2433,
  " neighb": 2434,
  " plants": 2435,
  " sol": 2436,
  " Momo": 2437,
  " gently": 2438,
  " cozy": 2439,
  "orrow": 2440,
  "ming": 2441,
  " explor": 2442,
  "sp": 2443,
  " mistake": 2444,
  " yog": 2445,
  "oc": 2446,
  "oomy": 2447,
  " pointed": 2448,
  " lad": 2449,
  " af": 2450,
  " stood": 2451,
  "ork": 2452,
  " onto": 2453,
  " waiting": 2454,
  " jumping": 2455,
  " prince": 2456,
  " cross": 2457,
  " lock": 2458,
  " cheer": 2459,
  " queen": 2460,
  " Why": 2461,
  " Mary": 2462,
  " wing": 2463,
  "ones": 2464,
  "we": 2465,
  " large": 2466,
  " lovely": 2467,
  "ult": 2468,
  " sur": 2469,
  " ret": 2470,
  "And": 2471,
  " deer": 2472,
  " chew": 2473,
  " couch": 2474,
  " bal": 2475,
  "aughter": 2476,
  " stret": 2477,
  " Their": 2478,
  "era": 2479,
  " places": 2480,
  " My": 2481,
  " ladder": 2482,
  "oof": 2483,
  " return": 2484,
  "raid": 2485,
  " ants": 2486,
  " dish": 2487,
  " afraid": 2488,
  " cleaned": 2489,
  " tomorrow": 2490,
  " building": 2491,
  " sandwich": 2492,
  " person": 2493,
  "Sally": 2494,
  "ned": 2495,
  " pretended": 2496,
  " bounce": 2497,
  " wip": 2498,
  "gest": 2499,
  " match": 2500,
  " rich": 2501,
  "uce": 2502,
  " pizz": 2503,
  " gather": 2504,
  " search": 2505,
  " boring": 2506,
  "oman": 2507,
  " Somet": 2508,
  " teeth": 2509,
  " hum": 2510,
  "Kitty": 2511,
  "My": 2512,
  "aced": 2513,
  " daughter": 2514,
  " woman": 2515,
  " scarf": 2516,
  " goes": 2517,
  " Together": 2518,
  " law": 2519,
  " stra": 2520,
  " swimming": 2521,
  " furry": 2522,
  " splashed": 2523,
  " pri": 2524,
  " loves": 2525,
  " true": 2526,
  " screamed": 2527,
  " lazy": 2528,
  " gen": 2529,
  " answer": 2530,
  " eag": 2531,
  " number": 2532,
  " ashamed": 2533,
  " pizza": 2534,
  "aw": 2535,
  " appeared": 2536,
  " fear": 2537,
  " nearby": 2538,
  " powerful": 2539,
  " flag": 2540,
  " St": 2541,
  " hang": 2542,
  "vous": 2543,
  " clown": 2544,
  "ek": 2545,
  " chase": 2546,
  " motor": 2547,
  " wand": 2548,
  " TV": 2549,
  " rub": 2550,
  " success": 2551,
  " chocol": 2552,
  " If": 2553,
  " creative": 2554,
  " trust": 2555,
  " wearing": 2556,
  " noisy": 2557,
  " matter": 2558,
  "pa": 2559,
  " dig": 2560,
  " hello": 2561,
  " ner": 2562,
  " tool": 2563,
  " saf": 2564,
  " Bird": 2565,
  "ado": 2566,
  " nervous": 2567,
  "elp": 2568,
  " test": 2569,
  " smiling": 2570,
  " sold": 2571,
  "icked": 2572,
  "oppy": 2573,
  "osaur": 2574,
  " circle": 2575,
  "mb": 2576,
  " map": 2577,
  " drank": 2578,
  " class": 2579,
  " tries": 2580,
  " chocolate": 2581,
  " Please": 2582,
  " impress": 2583,
  " knee": 2584,
  " gener": 2585,
  " dinosaur": 2586,
  " polite": 2587,
  " mirr": 2588,
  " Bobby": 2589,
  " Tiny": 2590,
  " balloons": 2591,
  " gold": 2592,
  " rare": 2593,
  " protect": 2594,
  " cand": 2595,
  "Stop": 2596,
  " carried": 2597,
  " Go": 2598,
  "ensive": 2599,
  " ap": 2600,
  " shadow": 2601,
  " mirror": 2602,
  " Don": 2603,
  " bald": 2604,
  " gun": 2605,
  "ina": 2606,
  " expensive": 2607,
  " reg": 2608,
  " mysterious": 2609,
  "iff": 2610,
  " Sp": 2611,
  " pump": 2612,
  " note": 2613,
  " hero": 2614,
  " march": 2615,
  " har": 2616,
  "arl": 2617,
  " icy": 2618,
  " respect": 2619,
  " weird": 2620,
  " snee": 2621,
  " cri": 2622,
  " gate": 2623,
  " soap": 2624,
  "rag": 2625,
  "ute": 2626,
  "issors": 2627,
  " poor": 2628,
  " these": 2629,
  " towel": 2630,
  " whale": 2631,
  " feet": 2632,
  " tape": 2633,
  " dizzy": 2634,
  "itter": 2635,
  " generous": 2636,
  "ndpa": 2637,
  " pres": 2638,
  " Benny": 2639,
  " disco": 2640,
  "nic": 2641,
  "Help": 2642,
  "ventually": 2643,
  " picnic": 2644,
  " lead": 2645,
  " mic": 2646,
  " sque": 2647,
  " embarrassed": 2648,
  " journey": 2649,
  " sugar": 2650,
  "isp": 2651,
  "scape": 2652,
  " boot": 2653,
  " peaceful": 2654,
  " tent": 2655,
  " fat": 2656,
  " Bear": 2657,
  " scissors": 2658,
  " tasted": 2659,
  " yelled": 2660,
  "Tommy": 2661,
  " tick": 2662,
  " mel": 2663,
  " brush": 2664,
  " dancing": 2665,
  "ness": 2666,
  " glue": 2667,
  " hur": 2668,
  " clap": 2669,
  " rough": 2670,
  " bridge": 2671,
  "ote": 2672,
  " decor": 2673,
  " closet": 2674,
  " crown": 2675,
  " stir": 2676,
  "ual": 2677,
  "imp": 2678,
  " print": 2679,
  " Sometimes": 2680,
  "owed": 2681,
  "airs": 2682,
  " How": 2683,
  "ume": 2684,
  " cap": 2685,
  " lamp": 2686,
  " vase": 2687,
  " scare": 2688,
  "lebr": 2689,
  " relie": 2690,
  "lves": 2691,
  "any": 2692,
  " eld": 2693,
  " tele": 2694,
  " celebr": 2695,
  " gigg": 2696,
  " whisp": 2697,
  " log": 2698,
  " sco": 2699,
  " blow": 2700,
  " painted": 2701,
  " Ducky": 2702,
  " pay": 2703,
  "erries": 2704,
  " wis": 2705,
  " berries": 2706,
  " mixed": 2707,
  " spread": 2708,
  " wouldn": 2709,
  " cage": 2710,
  " bake": 2711,
  "rob": 2712,
  "getable": 2713,
  " mountain": 2714,
  " adm": 2715,
  " drawing": 2716,
  " become": 2717,
  " famous": 2718,
  " knocked": 2719,
  " bean": 2720,
  " norm": 2721,
  " vegetable": 2722,
  "asp": 2723,
  " kicked": 2724,
  "ustr": 2725,
  " shark": 2726,
  "ser": 2727,
  " incred": 2728,
  " lose": 2729,
  " normal": 2730,
  " wrap": 2731,
  "ced": 2732,
  " group": 2733,
  " thick": 2734,
  " 3": 2735,
  " fine": 2736,
  " glass": 2737,
  " ignor": 2738,
  " clock": 2739,
  " team": 2740,
  " elderly": 2741,
  " clear": 2742,
  " corner": 2743,
  " frustr": 2744,
  " mighty": 2745,
  "robe": 2746,
  " cone": 2747,
  " incredible": 2748,
  " Br": 2749,
  "ighed": 2750,
  "Dad": 2751,
  " moms": 2752,
  " balance": 2753,
  " sock": 2754,
  " space": 2755,
  " jam": 2756,
  "ragile": 2757,
  " fright": 2758,
  " organized": 2759,
  " branches": 2760,
  " roar": 2761,
  "port": 2762,
  " sword": 2763,
  "alous": 2764,
  " Mama": 2765,
  " guess": 2766,
  " fool": 2767,
  " sell": 2768,
  " feed": 2769,
  " Some": 2770,
  " which": 2771,
  " horn": 2772,
  " present": 2773,
  " jealous": 2774,
  " yarn": 2775,
  "ony": 2776,
  " fragile": 2777,
  " burn": 2778,
  " understood": 2779,
  " mis": 2780,
  " stubb": 2781,
  " ter": 2782,
  " frustrated": 2783,
  "Where": 2784,
  "ray": 2785,
  " hose": 2786,
  "cient": 2787,
  " spent": 2788,
  " shoe": 2789,
  " taught": 2790,
  " stubborn": 2791,
  " twist": 2792,
  " creature": 2793,
  " chest": 2794,
  " spoiled": 2795,
  " relieved": 2796,
  " ancient": 2797,
  " wake": 2798,
  "ique": 2799,
  " fier": 2800,
  " pray": 2801,
  " fierce": 2802,
  " eggs": 2803,
  " cab": 2804,
  " terri": 2805,
  " barn": 2806,
  " pumpkin": 2807,
  " comfortable": 2808,
  " ord": 2809,
  "ym": 2810,
  " frightened": 2811,
  "orry": 2812,
  " toug": 2813,
  " unique": 2814,
  " measure": 2815,
  " goat": 2816,
  " wagon": 2817,
  " unus": 2818,
  " breath": 2819,
  " foolish": 2820,
  " useful": 2821,
  " exploring": 2822,
  "dle": 2823,
  " straw": 2824,
  " unusual": 2825,
  " dug": 2826,
  " clay": 2827,
  " discover": 2828,
  " tomato": 2829,
  " Pe": 2830,
  " dead": 2831,
  " finding": 2832,
  " police": 2833,
  " wrote": 2834,
  " clum": 2835,
  " exam": 2836,
  "lace": 2837,
  " waves": 2838,
  " square": 2839,
  " hears": 2840,
  " cabin": 2841,
  " tells": 2842,
  " necklace": 2843,
  " dull": 2844,
  " clumsy": 2845,
  " tough": 2846,
  " bubbles": 2847,
  " nosy": 2848,
  "kn": 2849,
  " searched": 2850,
  "Together": 2851,
  " washed": 2852,
  " bathroom": 2853,
  " paws": 2854,
  "bby": 2855,
  "ond": 2856,
  "unn": 2857,
  "anged": 2858,
  " board": 2859,
  "fic": 2860,
  "known": 2861,
  " asking": 2862,
  " crazy": 2863,
  " thankful": 2864,
  " sunf": 2865,
  " bitter": 2866,
  "yal": 2867,
  " pir": 2868,
  "berry": 2869,
  "alk": 2870,
  " ind": 2871,
  " diffic": 2872,
  " rose": 2873,
  "cil": 2874,
  " swan": 2875,
  " bloom": 2876,
  " unknown": 2877,
  " Ella": 2878,
  " covered": 2879,
  " difficult": 2880,
  " add": 2881,
  " pencil": 2882,
  " finger": 2883,
  " ham": 2884,
  " hoop": 2885,
  " jet": 2886,
  " witch": 2887,
  " drop": 2888,
  "Me": 2889,
  " '": 2890,
  " chicken": 2891,
  " gloomy": 2892,
  " loyal": 2893,
  "apped": 2894,
  "als": 2895,
  "Here": 2896,
  " wealthy": 2897,
  "com": 2898,
  "light": 2899,
  " unl": 2900,
  " cats": 2901,
  " ending": 2902,
  " guit": 2903,
  "bled": 2904,
  "shine": 2905,
  " dove": 2906,
  " joined": 2907,
  " cher": 2908,
  "anut": 2909,
  " mov": 2910,
  " terrible": 2911,
  " yours": 2912,
  "iant": 2913,
  " U": 2914,
  " Rex": 2915,
  " salad": 2916,
  " Andy": 2917,
  " nuts": 2918,
  " rat": 2919,
  "ground": 2920,
  " tiger": 2921,
  " potato": 2922,
  " mask": 2923,
  "xible": 2924,
  "selves": 2925,
  " value": 2926,
  " changed": 2927,
  " moving": 2928,
  " exciting": 2929,
  "ormous": 2930,
  " Many": 2931,
  " body": 2932,
  " Tr": 2933,
  " toast": 2934,
  " record": 2935,
  "erp": 2936,
  " zip": 2937,
  " disg": 2938,
  " cheap": 2939,
  " guitar": 2940,
  "irsty": 2941,
  " knowing": 2942,
  " adventur": 2943,
  " yourself": 2944,
  " enormous": 2945,
  " hairy": 2946,
  "Every": 2947,
  " shoot": 2948,
  " Brown": 2949,
  " bored": 2950,
  " pepper": 2951,
  " remind": 2952,
  "ory": 2953,
  " acorn": 2954,
  "land": 2955,
  " adventurous": 2956,
  " sunshine": 2957,
  " smaller": 2958,
  " hats": 2959,
  " stuff": 2960,
  " solve": 2961,
  " Jimmy": 2962,
  " flexible": 2963,
  " cost": 2964,
  "rilliant": 2965,
  " knife": 2966,
  " perform": 2967,
  " snacks": 2968,
  " nods": 2969,
  " shore": 2970,
  " brilliant": 2971,
  " thirsty": 2972,
  " delicate": 2973,
  " frown": 2974,
  " disgust": 2975,
  " collect": 2976,
  " stri": 2977,
  " seeds": 2978,
  " counted": 2979,
  " asleep": 2980,
  " banana": 2981,
  "reen": 2982,
  " mailbox": 2983,
  "iness": 2984,
  " dough": 2985,
  " trick": 2986,
  " neighbor": 2987,
  "ungle": 2988,
  " heal": 2989,
  "live": 2990,
  "Who": 2991,
  " stage": 2992,
  " market": 2993,
  "ident": 2994,
  " cube": 2995,
  " jungle": 2996,
  " stat": 2997,
  " squee": 2998,
  "mbre": 2999,
  " explained": 3000,
  "ates": 3001,
  " umbre": 3002,
  " disgusting": 3003,
  "Jim": 3004,
  "fted": 3005,
  " lab": 3006,
  " jolly": 3007,
  " flash": 3008,
  "und": 3009,
  " fridge": 3010,
  "inal": 3011,
  "ilt": 3012,
  "pid": 3013,
  " crane": 3014,
  "corn": 3015,
  " suit": 3016,
  " rh": 3017,
  "iddle": 3018,
  " sunflower": 3019,
  " times": 3020,
  " Al": 3021,
  "erpill": 3022,
  " caterpill": 3023,
  " relax": 3024,
  " shiver": 3025,
  " four": 3026,
  " island": 3027,
  "iginal": 3028,
  " harm": 3029,
  "ict": 3030,
  " While": 3031,
  "ying": 3032,
  " stupid": 3033,
  " medic": 3034,
  " Instead": 3035,
  " comb": 3036,
  " goose": 3037,
  " cro": 3038,
  "edient": 3039,
  " Will": 3040,
  " stove": 3041,
  "If": 3042,
  "Are": 3043,
  " independ": 3044,
  "Mum": 3045,
  "most": 3046,
  " spring": 3047,
  " gem": 3048,
  " batter": 3049,
  " sighed": 3050,
  " vegetables": 3051,
  " stones": 3052,
  "pes": 3053,
  " shine": 3054,
  "How": 3055,
  " medicine": 3056,
  " depend": 3057,
  " Your": 3058,
  " rug": 3059,
  " careless": 3060,
  " original": 3061,
  " stamp": 3062,
  " gar": 3063,
  " cries": 3064,
  "Inside": 3065,
  "gu": 3066,
  " carrots": 3067,
  " scr": 3068,
  " successful": 3069,
  " sauce": 3070,
  " jeep": 3071,
  " popcorn": 3072,
  " meal": 3073,
  " obedient": 3074,
  " almost": 3075,
  " middle": 3076,
  " magn": 3077,
  " study": 3078,
  " independent": 3079,
  " fearful": 3080,
  " jack": 3081,
  "met": 3082,
  "inky": 3083,
  "Sorry": 3084,
  " Sammy": 3085,
  " escape": 3086,
  " caterpillar": 3087,
  " serious": 3088,
  " peanut": 3089,
  " bedroom": 3090,
  " eager": 3091,
  "aken": 3092,
  " gets": 3093,
  " parrot": 3094,
  " statue": 3095,
  " helmet": 3096,
  " pebb": 3097,
  " No": 3098,
  " fountain": 3099,
  " raven": 3100,
  " ang": 3101,
  " pasta": 3102,
  " umbrella": 3103,
  " compet": 3104,
  "There": 3105,
  " jacket": 3106,
  " belonged": 3107,
  " dest": 3108,
  " filthy": 3109,
  " design": 3110,
  " borrow": 3111,
  " cam": 3112,
  "erable": 3113,
  " houses": 3114,
  " prize": 3115,
  " hay": 3116,
  " brace": 3117,
  " standing": 3118,
  " miserable": 3119,
  " raced": 3120,
  " taken": 3121,
  "ages": 3122,
  " fork": 3123,
  " crayon": 3124,
  " painting": 3125,
  " triang": 3126,
  "io": 3127,
  " impressive": 3128,
  " choose": 3129,
  " fig": 3130,
  " tied": 3131,
  "iable": 3132,
  " spotted": 3133,
  " lifted": 3134,
  " slipped": 3135,
  "ours": 3136,
  " tank": 3137,
  " thoughtful": 3138,
  " dependable": 3139,
  " steal": 3140,
  " garage": 3141,
  "enny": 3142,
  " built": 3143,
  " mush": 3144,
  " er": 3145,
  "ipe": 3146,
  " mole": 3147,
  " crawled": 3148,
  " scale": 3149,
  " boats": 3150,
  " pian": 3151,
  " pant": 3152,
  " hammer": 3153,
  " bottom": 3154,
  "lph": 3155,
  " cheerful": 3156,
  " using": 3157,
  " smoke": 3158,
  " picks": 3159,
  " moder": 3160,
  "berries": 3161,
  " shows": 3162,
  " piano": 3163,
  "rn": 3164,
  " magnet": 3165,
  "dile": 3166,
  "codile": 3167,
  " hurts": 3168,
  "inary": 3169,
  " ref": 3170,
  " crack": 3171,
  " eng": 3172,
  " aunt": 3173,
  " melon": 3174,
  " waff": 3175,
  " modern": 3176,
  " dolph": 3177,
  "unnel": 3178,
  "cream": 3179,
  "pack": 3180,
  " tunnel": 3181,
  "oin": 3182,
  " arrow": 3183,
  " reliable": 3184,
  " hopping": 3185,
  " mushroom": 3186,
  " jug": 3187,
  "Timmy": 3188,
  " squash": 3189,
  " gum": 3190,
  " sink": 3191,
  " movie": 3192,
  " tax": 3193,
  " flute": 3194,
  " beet": 3195,
  " lean": 3196,
  "Their": 3197,
  "iv": 3198,
  " popular": 3199,
  "opter": 3200,
  "icopter": 3201,
  " cryst": 3202,
  " ones": 3203,
  " sil": 3204,
  " competit": 3205,
  " helicopter": 3206,
  "aser": 3207,
  " needs": 3208,
  "ipop": 3209,
  "llipop": 3210,
  " crocodile": 3211,
  " liz": 3212,
  "Molly": 3213,
  " press": 3214,
  " troubled": 3215,
  " pige": 3216,
  " locked": 3217,
  " tricks": 3218,
  " lollipop": 3219,
  " playful": 3220,
  " humble": 3221,
  " taxi": 3222,
  " kissed": 3223,
  " low": 3224,
  "appy": 3225,
  "comfortable": 3226,
  "amond": 3227,
  " uncomfortable": 3228,
  " rid": 3229,
  "host": 3230,
  " wander": 3231,
  "atch": 3232,
  " angel": 3233,
  "edy": 3234,
  "cles": 3235,
  " grace": 3236,
  " torn": 3237,
  " anx": 3238,
  " wrapped": 3239,
  " muff": 3240,
  " twig": 3241,
  " pants": 3242,
  " disappoin": 3243,
  " Sn": 3244,
  " helps": 3245,
  " diamond": 3246,
  " camera": 3247,
  "atter": 3248,
  "oto": 3249,
  " anxious": 3250,
  " ghost": 3251,
  " ruined": 3252,
  " tears": 3253,
  "cident": 3254,
  " Jenny": 3255,
  "ilty": 3256,
  " quar": 3257,
  "aff": 3258,
  " Even": 3259,
  " fis": 3260,
  " belt": 3261,
  "opl": 3262,
  "eropl": 3263,
  " env": 3264,
  " guilty": 3265,
  " bull": 3266,
  " aeropl": 3267,
  " helpless": 3268,
  " happiness": 3269,
  " lizard": 3270,
  " boys": 3271,
  "cut": 3272,
  "ext": 3273,
  " cere": 3274,
  " walks": 3275,
  "cean": 3276,
  " passed": 3277,
  " meant": 3278,
  " ocean": 3279,
  " fluffy": 3280,
  " wire": 3281,
  " nail": 3282,
  " bracelet": 3283,
  " deaf": 3284,
  "zed": 3285,
  " stretch": 3286,
  " candle": 3287,
  " cact": 3288,
  "tt": 3289,
  " beetle": 3290,
  " mop": 3291,
  " harmless": 3292,
  "umpet": 3293,
  " ordinary": 3294,
  " answered": 3295,
  " collar": 3296,
  " cop": 3297,
  " bees": 3298,
  " tire": 3299,
  " shape": 3300,
  " quarrel": 3301,
  " radio": 3302,
  " flashlight": 3303,
  " crystal": 3304,
  " harder": 3305,
  " poured": 3306,
  " trumpet": 3307,
  " engine": 3308,
  "Mama": 3309,
  " persist": 3310,
  " hunt": 3311,
  " tooth": 3312,
  " cereal": 3313,
  " invited": 3314,
  " comput": 3315,
  " tag": 3316,
  " office": 3317,
  " melt": 3318,
  " charm": 3319,
  " spill": 3320,
  "coa": 3321,
  " lit": 3322,
  " scoot": 3323,
  " comet": 3324,
  " triangle": 3325,
  "ief": 3326,
  " mug": 3327,
  " rep": 3328,
  "ube": 3329,
  " yogurt": 3330,
  " spend": 3331,
  " compass": 3332,
  " accident": 3333,
  " shade": 3334,
  "hett": 3335,
  "aghett": 3336,
  "aghetti": 3337,
  " disappointed": 3338,
  " licked": 3339,
  " cactus": 3340,
  " pale": 3341,
  " cush": 3342,
  " figure": 3343,
  " regular": 3344,
  " giving": 3345,
  " avoc": 3346,
  " pro": 3347,
  " sheet": 3348,
  " whispered": 3349,
  "aze": 3350,
  "uth": 3351,
  "ellig": 3352,
  " create": 3353,
  " barber": 3354,
  " intellig": 3355,
  " pipe": 3356,
  " rode": 3357,
  " roof": 3358,
  "Jane": 3359,
  " thread": 3360,
  "ither": 3361,
  " vi": 3362,
  " load": 3363,
  " libr": 3364,
  " gifted": 3365,
  "ccol": 3366,
  " practiced": 3367,
  " delight": 3368,
  "ccoli": 3369,
  " harsh": 3370,
  "asses": 3371,
  " pow": 3372,
  " dust": 3373,
  " True": 3374,
  " bicy": 3375,
  "azz": 3376,
  " spaghetti": 3377,
  " compassion": 3378,
  " sailed": 3379,
  "urkey": 3380,
  "ubby": 3381,
  " forward": 3382,
  " persistent": 3383,
  " speed": 3384,
  " mitten": 3385,
  " cocoa": 3386,
  " envel": 3387,
  " questions": 3388,
  " computer": 3389,
  " coo": 3390,
  " feathers": 3391,
  "hip": 3392,
  " glove": 3393,
  "ging": 3394,
  "Bobo": 3395,
  " rice": 3396,
  " shrimp": 3397,
  " desk": 3398,
  " stream": 3399,
  " inse": 3400,
  " pigeon": 3401,
  " charming": 3402,
  " ears": 3403,
  " carp": 3404,
  "lcan": 3405,
  " raft": 3406,
  " envious": 3407,
  " knot": 3408,
  " turkey": 3409,
  " stronger": 3410,
  "omes": 3411,
  " coins": 3412,
  " tap": 3413,
  "lcano": 3414,
  "weet": 3415,
  " trap": 3416,
  "umbers": 3417,
  " aeroplane": 3418,
  " trunk": 3419,
  " wheat": 3420,
  " boxes": 3421,
  " carpet": 3422,
  " chubby": 3423,
  " restless": 3424,
  " intelligent": 3425,
  " tube": 3426,
  " spun": 3427,
  " dreams": 3428,
  " friendship": 3429,
  "ulif": 3430,
  "olin": 3431,
  " half": 3432,
  " crawl": 3433,
  " loop": 3434,
  " broccoli": 3435,
  " onion": 3436,
  " deliver": 3437,
  "anger": 3438,
  " acce": 3439,
  " vide": 3440,
  " volcano": 3441,
  " Jake": 3442,
  " sle": 3443,
  " track": 3444,
  " bri": 3445,
  " caulif": 3446,
  " vine": 3447,
  "ye": 3448,
  " ticket": 3449,
  " thief": 3450,
  "essie": 3451,
  "cycle": 3452,
  " louder": 3453,
  " insect": 3454,
  " numbers": 3455,
  "asing": 3456,
  " yaw": 3457,
  " haircut": 3458,
  "ital": 3459,
  " sleeping": 3460,
  " mill": 3461,
  " alert": 3462,
  " eventually": 3463,
  " excite": 3464,
  " pebble": 3465,
  " hosp": 3466,
  " attract": 3467,
  " planet": 3468,
  " Today": 3469,
  " univer": 3470,
  "isted": 3471,
  "ulu": 3472,
  " hospital": 3473,
  " eraser": 3474,
  " returned": 3475,
  " destro": 3476,
  " graceful": 3477,
  " happening": 3478,
  "ache": 3479,
  " OK": 3480,
  " Emily": 3481,
  " decide": 3482,
  " learning": 3483,
  " screen": 3484,
  "rework": 3485,
  " nicely": 3486,
  " leop": 3487,
  " cauliflower": 3488,
  " competitive": 3489,
  " poem": 3490,
  " celebrate": 3491,
  " curt": 3492,
  " peach": 3493,
  " soldier": 3494,
  " saus": 3495,
  " parade": 3496,
  "atient": 3497,
  " attractive": 3498,
  " curtain": 3499,
  " dolphin": 3500,
  " base": 3501,
  " violin": 3502,
  " ways": 3503,
  "Go": 3504,
  "ats": 3505,
  " travel": 3506,
  "ten": 3507,
  " rod": 3508,
  " ignorant": 3509,
  "ulb": 3510,
  " wheels": 3511,
  " yach": 3512,
  " scatter": 3513,
  " deter": 3514,
  " compassionate": 3515,
  " barrel": 3516,
  " envelope": 3517,
  " bubble": 3518,
  " lying": 3519,
  " firework": 3520,
  " sort": 3521,
  " question": 3522,
  "zzy": 3523,
  " Pipp": 3524,
  " scooter": 3525,
  " determ": 3526,
  " rag": 3527,
  " thu": 3528,
  " bicycle": 3529,
  "elery": 3530,
  " needle": 3531,
  " Fr": 3532,
  " judge": 3533,
  " bulb": 3534,
  " leopard": 3535,
  " tem": 3536,
  " yacht": 3537,
  " pony": 3538,
  " cricket": 3539,
  " order": 3540,
  " homes": 3541,
  " ador": 3542,
  "tern": 3543,
  " truth": 3544,
  " hook": 3545,
  "dom": 3546,
  " rubbed": 3547,
  "ete": 3548,
  "igator": 3549,
  " bushes": 3550,
  "Sarah": 3551,
  " uncle": 3552,
  " cushion": 3553,
  " spell": 3554,
  " grown": 3555,
  " cooked": 3556,
  " adorable": 3557,
  " chalk": 3558,
  " soar": 3559,
  " purse": 3560,
  " skin": 3561,
  " themselves": 3562,
  " impatient": 3563,
  " celery": 3564,
  " tray": 3565,
  " shells": 3566,
  " pengu": 3567,
  " sniff": 3568,
  " prun": 3569,
  " walls": 3570,
  " seal": 3571,
  " lively": 3572,
  " case": 3573,
  " alligator": 3574,
  " distant": 3575,
  " radish": 3576,
  " saying": 3577,
  " speak": 3578,
  " motorcycle": 3579,
  " meat": 3580,
  " send": 3581,
  "illa": 3582,
  " spinning": 3583,
  " forth": 3584,
  " counting": 3585,
  " enth": 3586,
  " bounced": 3587,
  " chain": 3588,
  " ed": 3589,
  " cleaning": 3590,
  "ebra": 3591,
  " film": 3592,
  " slept": 3593,
  " pit": 3594,
  " surf": 3595,
  " marry": 3596,
  "usia": 3597,
  " wallet": 3598,
  " enthusia": 3599,
  " metal": 3600,
  "urb": 3601,
  "ebook": 3602,
  " bin": 3603,
  " week": 3604,
  " notebook": 3605,
  " wiped": 3606,
  " skip": 3607,
  "ision": 3608,
  "chair": 3609,
  " biggest": 3610,
  " avocado": 3611,
  " impro": 3612,
  " behave": 3613,
  " destroy": 3614,
  "vator": 3615,
  " bandage": 3616,
  " laughs": 3617,
  " steak": 3618,
  " pattern": 3619,
  " Sh": 3620,
  " post": 3621,
  " elevator": 3622,
  " Buzz": 3623,
  "usie": 3624,
  " dive": 3625,
  " shut": 3626,
  " skipped": 3627,
  " unlock": 3628,
  " diary": 3629,
  "dest": 3630,
  "ject": 3631,
  " zebra": 3632,
  " bags": 3633,
  "ating": 3634,
  " armchair": 3635,
  "aged": 3636,
  "rage": 3637,
  " disturb": 3638,
  " oy": 3639,
  " pole": 3640,
  " showing": 3641,
  " gathered": 3642,
  " club": 3643,
  " nurse": 3644,
  "bul": 3645,
  " earth": 3646,
  " enc": 3647,
  " stranger": 3648,
  " sweater": 3649,
  " jellyfish": 3650,
  " screw": 3651,
  " temp": 3652,
  " Poppy": 3653,
  " compl": 3654,
  " mixer": 3655,
  "Give": 3656,
  " skull": 3657,
  " lime": 3658,
  " bump": 3659,
  "bulance": 3660,
  " ambulance": 3661,
  "nam": 3662,
  " father": 3663,
  " journal": 3664,
  "Gra": 3665,
  " loudly": 3666,
  "ito": 3667,
  " folder": 3668,
  " shield": 3669,
  " Bet": 3670,
  " Lulu": 3671,
  " library": 3672,
  " Peter": 3673,
  " buttons": 3674,
  " playground": 3675,
  " trucks": 3676,
  " ink": 3677,
  " lights": 3678,
  " tummy": 3679,
  " pointing": 3680,
  " city": 3681,
  " decorate": 3682,
  " station": 3683,
  "irit": 3684,
  " prep": 3685,
  " falls": 3686,
  "quito": 3687,
  " Polly": 3688,
  "Billy": 3689,
  " Fo": 3690,
  " fu": 3691,
  "ention": 3692,
  "nger": 3693,
  " Birdy": 3694,
  "lies": 3695,
  " herb": 3696,
  "nament": 3697,
  " ornament": 3698,
  " modest": 3699,
  " guard": 3700,
  " mos": 3701,
  " knows": 3702,
  " cord": 3703,
  " polish": 3704,
  " marble": 3705,
  "oby": 3706,
  " mosquito": 3707,
  "umbled": 3708,
  " salt": 3709,
  " attic": 3710,
  " vest": 3711,
  " whenever": 3712,
  "ctop": 3713,
  " resc": 3714,
  " yet": 3715,
  " ple": 3716,
  " disappeared": 3717,
  "ceed": 3718,
  " strawberry": 3719,
  " once": 3720,
  " Mum": 3721,
  " kay": 3722,
  " brothers": 3723,
  " itch": 3724,
  " pirate": 3725,
  " football": 3726,
  " split": 3727,
  "kele": 3728,
  "keleton": 3729,
  " hipp": 3730,
  " aut": 3731,
  " led": 3732,
  "uring": 3733,
  "ctopus": 3734,
  " driving": 3735,
  " cable": 3736,
  " support": 3737,
  " calling": 3738,
  " cupboard": 3739,
  "aky": 3740,
  "ushed": 3741,
  " wishes": 3742,
  " complet": 3743,
  " tripped": 3744,
  " root": 3745,
  " kayak": 3746,
  " octopus": 3747,
  "obile": 3748,
  " added": 3749,
  " edge": 3750,
  " mild": 3751,
  "stic": 3752,
  " determined": 3753,
  " succeed": 3754,
  "?\".": 3755,
  " reading": 3756,
  " coal": 3757,
  "omobile": 3758,
  "Well": 3759,
  " sung": 3760,
  "utes": 3761,
  "par": 3762,
  " suggest": 3763,
  " stack": 3764,
  " thunder": 3765,
  " kindness": 3766,
  " automobile": 3767,
  " complain": 3768,
  " enthusiastic": 3769,
  " sneeze": 3770,
  " cartoon": 3771,
  " yoga": 3772,
  " Little": 3773,
  " growl": 3774,
  "htub": 3775,
  " flea": 3776,
  " meadow": 3777,
  "la": 3778,
  " drawer": 3779,
  " bathtub": 3780,
  " ribb": 3781,
  "ophone": 3782,
  " means": 3783,
  " golf": 3784,
  " hall": 3785,
  " skeleton": 3786,
  " math": 3787,
  " veil": 3788,
  " hunter": 3789,
  " flame": 3790,
  " gor": 3791,
  " poke": 3792,
  " video": 3793,
  " chess": 3794,
  " cups": 3795,
  " troph": 3796,
  " glowing": 3797,
  " matt": 3798,
  " oyster": 3799,
  "work": 3800,
  " penny": 3801,
  " spear": 3802,
  "lasses": 3803,
  " itself": 3804,
  " drawings": 3805,
  " hippo": 3806,
  " repair": 3807,
  " switch": 3808,
  " sunglasses": 3809,
  " teleph": 3810,
  " costume": 3811,
  " dess": 3812,
  " zipp": 3813,
  ",â": 3814,
  " repe": 3815,
  " muffin": 3816,
  " arg": 3817,
  " pastry": 3818,
  " pun": 3819,
  " rolling": 3820,
  " minutes": 3821,
  " packed": 3822,
  " makeup": 3823,
  "iron": 3824,
  "ric": 3825,
  " People": 3826,
  " waffle": 3827,
  "case": 3828,
  " handle": 3829,
  " pear": 3830,
  " maze": 3831,
  " telephone": 3832,
  " pine": 3833,
  "ait": 3834,
  " gear": 3835,
  " hedge": 3836,
  " mattress": 3837,
  " package": 3838,
  "aving": 3839,
  " Miss": 3840,
  " shocked": 3841,
  "ines": 3842,
  " trophy": 3843,
  " powder": 3844,
  " knight": 3845,
  " cob": 3846,
  " missile": 3847,
  " managed": 3848,
  " frame": 3849,
  " encou": 3850,
  " wife": 3851,
  " ok": 3852,
  " separ": 3853,
  " stairs": 3854,
  "web": 3855,
  " rot": 3856,
  " camp": 3857,
  "urch": 3858,
  "rophone": 3859,
  " magaz": 3860,
  " colour": 3861,
  " strugg": 3862,
  " grapes": 3863,
  "time": 3864,
  " file": 3865,
  "head": 3866,
  " Tina": 3867,
  " basketball": 3868,
  "Bye": 3869,
  "old": 3870,
  "per": 3871,
  " cobweb": 3872,
  "Re": 3873,
  "Jimmy": 3874,
  " Tweet": 3875,
  "See": 3876,
  " perm": 3877,
  " wool": 3878,
  " Dan": 3879,
  " microphone": 3880,
  "esday": 3881,
  " eye": 3882,
  " leash": 3883,
  " gasp": 3884,
  "iew": 3885,
  "keep": 3886,
  " weep": 3887,
  " barking": 3888,
  "ature": 3889,
  " safely": 3890,
  " tear": 3891,
  " view": 3892,
  "ffe": 3893,
  " slides": 3894,
  " steps": 3895,
  "ffee": 3896,
  "istol": 3897,
  " bananas": 3898,
  " staff": 3899,
  " spirit": 3900,
  " task": 3901,
  " giggled": 3902,
  " hoc": 3903,
  " hockey": 3904,
  " vend": 3905,
  " those": 3906,
  " gorilla": 3907,
  "Jill": 3908,
  " cooler": 3909,
  " Rose": 3910,
  "was": 3911,
  " early": 3912,
  "cing": 3913,
  " marched": 3914,
  "rosc": 3915,
  " mint": 3916,
  " Look": 3917,
  "washer": 3918,
  " flour": 3919,
  " hotel": 3920,
  "hic": 3921,
  " sailor": 3922,
  " dessert": 3923,
  " photo": 3924,
  "roscope": 3925,
  " vehic": 3926,
  "ilot": 3927,
  " often": 3928,
  " church": 3929,
  " Pete": 3930,
  " cooking": 3931,
  " remain": 3932,
  " five": 3933,
  " sausage": 3934,
  "otter": 3935,
  " ten": 3936,
  " tools": 3937,
  " medal": 3938,
  " either": 3939,
  " fireman": 3940,
  "chor": 3941,
  " grandpa": 3942,
  " otter": 3943,
  " baseball": 3944,
  " pretending": 3945,
  " pistol": 3946,
  " dishwasher": 3947,
  " rever": 3948,
  " organize": 3949,
  " pee": 3950,
  " vendor": 3951,
  " knock": 3952,
  " sight": 3953,
  " grill": 3954,
  " temple": 3955,
  " battery": 3956,
  " thinking": 3957,
  " opens": 3958,
  " ow": 3959,
  " realised": 3960,
  " iron": 3961,
  " laser": 3962,
  " sne": 3963,
  " sandbox": 3964,
  " oil": 3965,
  " patch": 3966,
  " hours": 3967,
  " rise": 3968,
  " whip": 3969,
  "'d": 3970,
  "ctory": 3971,
  " Give": 3972,
  " anchor": 3973,
  " trash": 3974,
  "ense": 3975,
  " short": 3976,
  " Betty": 3977,
  "ney": 3978,
  " rhin": 3979,
  " factory": 3980,
  "seum": 3981,
  " may": 3982,
  " ward": 3983,
  "ately": 3984,
  " cardboard": 3985,
  "ugged": 3986,
  " lotion": 3987,
  "Al": 3988,
  " message": 3989,
  " valu": 3990,
  " wardrobe": 3991,
  " cell": 3992,
  " museum": 3993,
  "apers": 3994,
  " ur": 3995,
  "ination": 3996,
  " hanging": 3997,
  "ucet": 3998,
  "ailable": 3999,
  " Sunny": 4000,
  " Zoom": 4001,
  " hive": 4002,
  "eer": 4003,
  " towers": 4004,
  "keeper": 4005,
  " blackboard": 4006,
  " mem": 4007,
  "loo": 4008,
  " excitement": 4009,
  " coffee": 4010,
  " pilot": 4011,
  "ready": 4012,
  "Fluffy": 4013,
  " napkin": 4014,
  " penguin": 4015,
  "ron": 4016,
  " check": 4017,
  " reward": 4018,
  " quit": 4019,
  " Pippin": 4020,
  " cane": 4021,
  " picking": 4022,
  "place": 4023,
  " Snow": 4024,
  "azor": 4025,
  " faucet": 4026,
  " ig": 4027,
  " passport": 4028,
  " Rob": 4029,
  " stumbled": 4030,
  " dreamed": 4031,
  " igloo": 4032,
  " Bessie": 4033,
  "aroo": 4034,
  "angaroo": 4035,
  " freez": 4036,
  " juicy": 4037,
  " allowed": 4038,
  "play": 4039,
  " holds": 4040,
  " already": 4041,
  " available": 4042,
  " sett": 4043,
  " bathe": 4044,
  " tornado": 4045,
  "imney": 4046,
  " fingers": 4047,
  "htray": 4048,
  " hanger": 4049,
  " newsp": 4050,
  " size": 4051,
  " laund": 4052,
  " lend": 4053,
  " chimney": 4054,
  " laundry": 4055,
  " oak": 4056,
  " fisher": 4057,
  " kangaroo": 4058,
  " men": 4059,
  " Everywhere": 4060,
  " telling": 4061,
  "Em": 4062,
  " novel": 4063,
  "body": 4064,
  " mummy": 4065,
  " pal": 4066,
  " mule": 4067,
  " cherries": 4068,
  " notice": 4069,
  " practice": 4070,
  " spilled": 4071,
  " reind": 4072,
  " complete": 4073,
  " enjoying": 4074,
  " microscope": 4075,
  "arian": 4076,
  "ampoo": 4077,
  " gain": 4078,
  " sub": 4079,
  " fireplace": 4080,
  " imagine": 4081,
  "anda": 4082,
  " display": 4083,
  "ocer": 4084,
  " Zip": 4085,
  " fastest": 4086,
  " magazine": 4087,
  " hurry": 4088,
  " cabinet": 4089,
  " shrink": 4090,
  " ashtray": 4091,
  "Wait": 4092,
  " cows": 4093,
  " Spike": 4094,
  "Joe": 4095,
  "gen": 4096,
  " palace": 4097,
  " improve": 4098,
  "aches": 4099,
  " rake": 4100,
  " reindeer": 4101,
  " falling": 4102,
  "oceros": 4103,
  " skirt": 4104,
  "ured": 4105,
  " discovered": 4106,
  " stared": 4107,
  " roared": 4108,
  "aid": 4109,
  " silver": 4110,
  " tub": 4111,
  " trail": 4112,
  "Is": 4113,
  " miner": 4114,
  "come": 4115,
  " bill": 4116,
  "iction": 4117,
  " fog": 4118,
  " ax": 4119,
  "stairs": 4120,
  "ilet": 4121,
  " hut": 4122,
  " happier": 4123,
  " taller": 4124,
  "ictionary": 4125,
  " oats": 4126,
  " fisherman": 4127,
  " object": 4128,
  " por": 4129,
  "vision": 4130,
  " valuable": 4131,
  " shampoo": 4132,
  " holes": 4133,
  " offered": 4134,
  " boots": 4135,
  " rhinoceros": 4136,
  " names": 4137,
  " toilet": 4138,
  " climbing": 4139,
  " blin": 4140,
  "vice": 4141,
  "Ow": 4142,
  " stretched": 4143,
  "iest": 4144,
  " zipper": 4145,
  " listening": 4146,
  " bathrobe": 4147,
  " sym": 4148,
  " jewelry": 4149,
  "alend": 4150,
  " Here": 4151,
  " jokes": 4152,
  " television": 4153,
  " prov": 4154,
  " calend": 4155,
  " stops": 4156,
  " axe": 4157,
  " jumps": 4158,
  " fuel": 4159,
  "cu": 4160,
  " sparkly": 4161,
  " perfume": 4162,
  " Susie": 4163,
  " bury": 4164,
  "bol": 4165,
  "Mummy": 4166,
  "lu": 4167,
  " pressed": 4168,
  " Kim": 4169,
  "reek": 4170,
  " rece": 4171,
  "fa": 4172,
  " Toby": 4173,
  " neat": 4174,
  " creek": 4175,
  " popped": 4176,
  " opera": 4177,
  " calendar": 4178,
  " snap": 4179,
  " gasped": 4180,
  " attach": 4181,
  " symbol": 4182,
  " tuna": 4183,
  " Mar": 4184,
  " papers": 4185,
  "Mr": 4186,
  " unpack": 4187,
  " resist": 4188,
  " dictionary": 4189,
  " subway": 4190,
  " letters": 4191,
  " freezer": 4192,
  " chose": 4193,
  " pinch": 4194,
  "zag": 4195,
  " spoke": 4196,
  " anyway": 4197,
  " super": 4198,
  " porch": 4199,
  " helper": 4200,
  "affe": 4201,
  " bikes": 4202,
  " lie": 4203,
  "arry": 4204,
  "iches": 4205,
  " tightly": 4206,
  " comfort": 4207,
  " shaking": 4208,
  " bookcase": 4209,
  " son": 4210,
  " razor": 4211,
  "aurant": 4212,
  " sandwiches": 4213,
  " Are": 4214,
  "igzag": 4215,
  " weigh": 4216,
  " against": 4217,
  " stickers": 4218,
  " restaurant": 4219,
  " newspaper": 4220,
  " blouse": 4221,
  " vehicle": 4222,
  " swinging": 4223,
  " ped": 4224,
  " disag": 4225,
  " nature": 4226,
  " squirrels": 4227,
  "ival": 4228,
  " belongs": 4229,
  " swamp": 4230,
  " butterflies": 4231,
  " gym": 4232,
  "del": 4233,
  " inclu": 4234,
  " growing": 4235,
  " buckle": 4236,
  "omed": 4237,
  " stirred": 4238,
  " billboard": 4239,
  " mustache": 4240,
  "xy": 4241,
  " beep": 4242,
  "te": 4243,
  " alarm": 4244,
  " lightning": 4245,
  " fest": 4246,
  " lip": 4247,
  " hung": 4248,
  "utor": 4249,
  " distance": 4250,
  "ogn": 4251,
  " cards": 4252,
  " obser": 4253,
  " agree": 4254,
  "Little": 4255,
  " ext": 4256,
  " tease": 4257,
  " recogn": 4258,
  " rubber": 4259,
  "ik": 4260,
  " hate": 4261,
  "fast": 4262,
  "ef": 4263,
  "Ouch": 4264,
  " doesn": 4265,
  " musician": 4266,
  " advice": 4267,
  " beef": 4268,
  " serve": 4269,
  "aspoon": 4270,
  " sweetie": 4271,
  " model": 4272,
  "lter": 4273,
  " crib": 4274,
  " blueberries": 4275,
  " sofa": 4276,
  " circles": 4277,
  " breakfast": 4278,
  " tutor": 4279,
  "asis": 4280,
  " bookshe": 4281,
  " giraffe": 4282,
  " festival": 4283,
  "stri": 4284,
  " separate": 4285,
  " shelter": 4286,
  " gas": 4287,
  " airport": 4288,
  " olive": 4289,
  " rail": 4290,
  " bookshelf": 4291,
  " frogs": 4292,
  " teaspoon": 4293,
  " reverse": 4294,
  " junk": 4295,
  " riding": 4296,
  " pleased": 4297,
  " drain": 4298,
  " Mrs": 4299,
  " wipe": 4300,
  " oasis": 4301,
  " soil": 4302,
  " ahead": 4303,
  " rescue": 4304,
  " leaving": 4305,
  "ummer": 4306,
  " painter": 4307,
  " squeeze": 4308,
  " chance": 4309,
  " poked": 4310,
  " knob": 4311,
  " Teddy": 4312,
  " peeked": 4313,
  " lumber": 4314,
  " trains": 4315,
  " extra": 4316,
  " slipp": 4317,
  " quiz": 4318,
  " refused": 4319,
  "res": 4320,
  "rmomet": 4321,
  " page": 4322,
  " rules": 4323,
  " happens": 4324,
  " sounded": 4325,
  " ins": 4326,
  " point": 4327,
  " winter": 4328,
  " Grandpa": 4329,
  " dancer": 4330,
  " birdc": 4331,
  " disappear": 4332,
  "rmometer": 4333,
  " Dolly": 4334,
  " weather": 4335,
  " waste": 4336,
  " birdcage": 4337,
  " lic": 4338,
  " reef": 4339,
  " theater": 4340,
  " carrying": 4341,
  " invite": 4342,
  "Daisy": 4343,
  "iform": 4344,
  " goal": 4345,
  " ostri": 4346,
  " uniform": 4347,
  " swung": 4348,
  " trade": 4349,
  " cliff": 4350,
  "ience": 4351,
  " lawn": 4352,
  " leaned": 4353,
  "ola": 4354,
  " Pandy": 4355,
  "angu": 4356,
  " accept": 4357,
  " admire": 4358,
  " fort": 4359,
  " accidentally": 4360,
  " pastel": 4361,
  "bbles": 4362,
  " stom": 4363,
  " langu": 4364,
  " twir": 4365,
  " suff": 4366,
  " panda": 4367,
  " bet": 4368,
  "riger": 4369,
  "rigerator": 4370,
  " peek": 4371,
  "render": 4372,
  " blinked": 4373,
  " starts": 4374,
  "na": 4375,
  " refrigerator": 4376,
  " anywhere": 4377,
  "!\".": 4378,
  " imagined": 4379,
  " dreaming": 4380,
  " remove": 4381,
  "night": 4382,
  " shower": 4383,
  " Lee": 4384,
  " Co": 4385,
  " classroom": 4386,
  " ceiling": 4387,
  " caring": 4388,
  "ium": 4389,
  " grand": 4390,
  " missing": 4391,
  "aked": 4392,
  " license": 4393,
  " stable": 4394,
  " monkeys": 4395,
  " thermometer": 4396,
  "astic": 4397,
  " warned": 4398,
  " Where": 4399,
  " summer": 4400,
  " above": 4401,
  " brick": 4402,
  "ected": 4403,
  " cudd": 4404,
  " problems": 4405,
  "amber": 4406,
  " chasing": 4407,
  " label": 4408,
  " apron": 4409,
  " sent": 4410,
  " lawy": 4411,
  "urnit": 4412,
  "urniture": 4413,
  " lid": 4414,
  "uggage": 4415,
  "med": 4416,
  " respectful": 4417,
  " furniture": 4418,
  " frowned": 4419,
  " zoomed": 4420,
  " pages": 4421,
  " prevent": 4422,
  " bent": 4423,
  " luggage": 4424,
  " mistakes": 4425,
  " ostrich": 4426,
  " sunset": 4427,
  "ison": 4428,
  " suggested": 4429,
  " windows": 4430,
  "low": 4431,
  "ations": 4432,
  " jail": 4433,
  " wine": 4434,
  " ribbon": 4435,
  " older": 4436,
  " shouts": 4437,
  " grape": 4438,
  " Cl": 4439,
  " wigg": 4440,
  "ucture": 4441,
  " structure": 4442,
  " spoil": 4443,
  "eor": 4444,
  " fixing": 4445,
  " chamber": 4446,
  " lions": 4447,
  " delay": 4448,
  " finds": 4449,
  " handed": 4450,
  " searching": 4451,
  " unite": 4452,
  "Did": 4453,
  " fought": 4454,
  " lawyer": 4455,
  " brightly": 4456,
  " meeting": 4457,
  " pair": 4458,
  " choice": 4459,
  " surprises": 4460,
  " Ellie": 4461,
  " art": 4462,
  " Un": 4463,
  "Ch": 4464,
  " favour": 4465,
  "eterin": 4466,
  "eterinarian": 4467,
  "adium": 4468,
  " stadium": 4469,
  " proudly": 4470,
  "iki": 4471,
  " veterinarian": 4472,
  "vet": 4473,
  " chairs": 4474,
  "rod": 4475,
  " slip": 4476,
  " Spe": 4477,
  " sadly": 4478,
  " Bow": 4479,
  " incre": 4480,
  " Carl": 4481,
  " puddles": 4482,
  " berry": 4483,
  " introd": 4484,
  " ranch": 4485,
  "veal": 4486,
  " Boun": 4487,
  " argue": 4488,
  " V": 4489,
  " admired": 4490,
  " cur": 4491,
  " favourite": 4492,
  "Your": 4493,
  " inf": 4494,
  " excitedly": 4495,
  " grabs": 4496,
  " rac": 4497,
  "mend": 4498,
  " steam": 4499,
  "thank": 4500,
  " human": 4501,
  "eorge": 4502,
  "sity": 4503,
  " Hel": 4504,
  " pushing": 4505,
  " saving": 4506,
  " Red": 4507,
  " reveal": 4508,
  "alley": 4509,
  " yield": 4510,
  "ommend": 4511,
  "olog": 4512,
  " mall": 4513,
  " reminded": 4514,
  " recommend": 4515,
  " leak": 4516,
  " surrender": 4517,
  " harb": 4518,
  " appl": 4519,
  "cuss": 4520,
  "aul": 4521,
  " weap": 4522,
  " regret": 4523,
  " putting": 4524,
  " valley": 4525,
  " mineral": 4526,
  " evening": 4527,
  " matches": 4528,
  " forgave": 4529,
  "elcome": 4530,
  " sneezed": 4531,
  " pup": 4532,
  " aw": 4533,
  " rushed": 4534,
  "ecause": 4535,
  " spade": 4536,
  " apolog": 4537,
  " discuss": 4538,
  " plates": 4539,
  " prepare": 4540,
  " harbor": 4541,
  " ignore": 4542,
  " Big": 4543,
  " country": 4544,
  " language": 4545,
  " Buzzy": 4546,
  " pulls": 4547,
  " plastic": 4548,
  " supply": 4549,
  " float": 4550,
  " sniffed": 4551,
  " Jazz": 4552,
  " replace": 4553,
  " meas": 4554,
  " shovel": 4555,
  " Bill": 4556,
  " raise": 4557,
  " Next": 4558,
  " fre": 4559,
  " cared": 4560,
  " socks": 4561,
  " strip": 4562,
  " doors": 4563,
  " mystery": 4564,
  " lives": 4565,
  " restore": 4566,
  " sticker": 4567,
  " sudden": 4568,
  "ari": 4569,
  " kinds": 4570,
  " slippery": 4571,
  "ero": 4572,
  " Ow": 4573,
  " player": 4574,
  " panic": 4575,
  "ricane": 4576,
  " hoping": 4577,
  "iday": 4578,
  " shone": 4579,
  "lex": 4580,
  "hero": 4581,
  " beg": 4582,
  " Mike": 4583,
  " Binky": 4584,
  " superhero": 4585,
  " delighted": 4586,
  " gro": 4587,
  "Yay": 4588,
  "aud": 4589,
  "chan": 4590,
  " chickens": 4591,
  " shoulder": 4592,
  " rained": 4593,
  " colourful": 4594,
  " breat": 4595,
  " Alice": 4596,
  " claw": 4597,
  " Bubbles": 4598,
  " softly": 4599,
  "Yuck": 4600,
  "rise": 4601,
  " port": 4602,
  "Grandma": 4603,
  " hol": 4604,
  " holiday": 4605,
  "icer": 4606,
  " â": 4607,
  " barks": 4608,
  "ason": 4609,
  " throwing": 4610,
  " planes": 4611,
  "Mary": 4612,
  " bend": 4613,
  " Freddy": 4614,
  " shakes": 4615,
  " infant": 4616,
  " ended": 4617,
  " shivering": 4618,
  " kneel": 4619,
  " sunrise": 4620,
  " pushes": 4621,
  " Olive": 4622,
  " thanks": 4623,
  " fresh": 4624,
  " suffer": 4625,
  " points": 4626,
  "imed": 4627,
  "wards": 4628,
  " Pat": 4629,
  " tip": 4630,
  " Speedy": 4631,
  " freeze": 4632,
  " keeping": 4633,
  " Would": 4634,
  " giggle": 4635,
  " copper": 4636,
  " smells": 4637,
  " dear": 4638,
  " enter": 4639,
  " provide": 4640,
  "cast": 4641,
  "chanic": 4642,
  " dishes": 4643,
  " End": 4644,
  "cond": 4645,
  " unh": 4646,
  "Next": 4647,
  " applaud": 4648,
  " heads": 4649,
  " hurricane": 4650,
  " cherry": 4651,
  " menu": 4652,
  " meowed": 4653,
  " thumb": 4654,
  " mass": 4655,
  " second": 4656,
  " brighter": 4657,
  "ince": 4658,
  " sandcast": 4659,
  " mechanic": 4660,
  " wre": 4661,
  " sprayed": 4662,
  " letting": 4663,
  " event": 4664,
  " weapon": 4665,
  " laught": 4666,
  " x": 4667,
  " laughter": 4668,
  " clapping": 4669,
  " feelings": 4670,
  "Will": 4671,
  "icky": 4672,
  " splashing": 4673,
  "ement": 4674,
  " Or": 4675,
  "acked": 4676,
  " castles": 4677,
  " Fl": 4678,
  "cer": 4679,
  " score": 4680,
  " universe": 4681,
  "apping": 4682,
  " navy": 4683,
  " dem": 4684,
  " sticky": 4685,
  "ophie": 4686,
  " rooms": 4687,
  " row": 4688,
  " flies": 4689,
  "igi": 4690,
  " Dave": 4691,
  " unhappy": 4692,
  " greedy": 4693,
  " dare": 4694,
  " alive": 4695,
  " breaks": 4696,
  " ener": 4697,
  " courage": 4698,
  " invit": 4699,
  "Ready": 4700,
  " repeat": 4701,
  " demand": 4702,
  " trusted": 4703,
  "Lisa": 4704,
  " somewhere": 4705,
  "arlie": 4706,
  " prune": 4707,
  "bles": 4708,
  " wreck": 4709,
  " Y": 4710,
  " skill": 4711,
  " examine": 4712,
  " parts": 4713,
  "year": 4714,
  " eaten": 4715,
  "oe": 4716,
  "All": 4717,
  "erc": 4718,
  "enry": 4719,
  " mention": 4720,
  " raining": 4721,
  " Help": 4722,
  "Buddy": 4723,
  " throws": 4724,
  " jogged": 4725,
  "quest": 4726,
  " starting": 4727,
  " rush": 4728,
  " poison": 4729,
  " pirates": 4730,
  "heart": 4731,
  " vac": 4732,
  " content": 4733,
  "Emma": 4734,
  " Kiki": 4735,
  " sigh": 4736,
  " flapped": 4737,
  " drops": 4738,
  " chirp": 4739,
  " sport": 4740,
  "Qu": 4741,
  " sparkled": 4742,
  " Zoomy": 4743,
  " given": 4744,
  " streng": 4745,
  " steel": 4746,
  "Ann": 4747,
  " bumped": 4748,
  " yawned": 4749,
  " stud": 4750,
  " request": 4751,
  " scold": 4752,
  " myself": 4753,
  " strength": 4754,
  " shrugged": 4755,
  "Mark": 4756,
  " coats": 4757,
  " punish": 4758,
  " equ": 4759,
  " snugg": 4760,
  " university": 4761,
  " paid": 4762,
  " Johnny": 4763,
  " pigs": 4764,
  " scratch": 4765,
  " toe": 4766,
  " exerc": 4767,
  " tracks": 4768,
  " upstairs": 4769,
  " prayed": 4770,
  " crossed": 4771,
  " squeezed": 4772,
  " impressed": 4773,
  " flood": 4774,
  " bouncing": 4775,
  " Ru": 4776,
  "Alice": 4777,
  " rabbits": 4778,
  " badly": 4779,
  "ges": 4780,
  "..": 4781,
  " warn": 4782,
  " leather": 4783,
  " expect": 4784,
  " news": 4785,
  " tide": 4786,
  " Ted": 4787,
  " minute": 4788,
  " bears": 4789,
  " claws": 4790,
  " buzz": 4791,
  " sweetheart": 4792,
  " Sm": 4793,
  " nation": 4794,
  "yth": 4795,
  "Sh": 4796,
  "ythm": 4797,
  " vacation": 4798,
  " hist": 4799,
  " heat": 4800,
  " strawberries": 4801,
  " observe": 4802,
  " explored": 4803,
  " settle": 4804,
  " sandcastle": 4805,
  " yawn": 4806,
  " history": 4807,
  " Lilly": 4808,
  " Lola": 4809,
  "mare": 4810,
  " Mummy": 4811,
  " Sque": 4812,
  "ially": 4813,
  "inking": 4814,
  " believed": 4815,
  " horses": 4816,
  "Daddy": 4817,
  " Hoppy": 4818,
  " checked": 4819,
  " Mandy": 4820,
  " network": 4821,
  " tour": 4822,
  " cheek": 4823,
  " Under": 4824,
  " offer": 4825,
  " easily": 4826,
  " placed": 4827,
  "spec": 4828,
  " spots": 4829,
  " snowball": 4830,
  "ween": 4831,
  "men": 4832,
  " energy": 4833,
  " Bee": 4834,
  " imagination": 4835,
  " blueberry": 4836,
  " between": 4837,
  "otten": 4838,
  "specially": 4839,
  " Gigi": 4840,
  "izes": 4841,
  " daisy": 4842,
  " waving": 4843,
  "reeze": 4844,
  "reat": 4845,
  " vroom": 4846,
  " soak": 4847,
  " rhythm": 4848,
  " safari": 4849,
  " massage": 4850,
  " stomach": 4851,
  " baking": 4852,
  " nightmare": 4853,
  "quake": 4854,
  " insisted": 4855,
  " blowing": 4856,
  " entered": 4857,
  "Before": 4858,
  " stair": 4859,
  " palm": 4860,
  " beauty": 4861,
  " twisted": 4862,
  " bother": 4863,
  " writing": 4864,
  " prunes": 4865,
  " scoop": 4866,
  " brain": 4867,
  " ing": 4868,
  "ipment": 4869,
  " poppy": 4870,
  " hills": 4871,
  "noon": 4872,
  " afternoon": 4873,
  " equipment": 4874,
  " especially": 4875,
  "hest": 4876,
  " sir": 4877,
  " See": 4878,
  " pad": 4879,
  " ingred": 4880,
  " calls": 4881,
  " ingredient": 4882,
  " Fox": 4883,
  " earthquake": 4884,
  " ignored": 4885,
  " Snowy": 4886,
  " burned": 4887,
  " nobody": 4888,
  "mble": 4889,
  " sty": 4890,
  "apa": 4891,
  " sew": 4892,
  " tug": 4893,
  "isty": 4894,
  "xygen": 4895,
  " hearts": 4896,
  " lear": 4897,
  " learnt": 4898,
  " lemonade": 4899,
  " increase": 4900,
  "illie": 4901,
  "Jenny": 4902,
  " gaz": 4903,
  " backpack": 4904,
  " mailman": 4905,
  " pedal": 4906,
  " whistled": 4907,
  " Sk": 4908,
  "Fred": 4909,
  " shopkeeper": 4910,
  "ffic": 4911,
  " permit": 4912,
  " tremble": 4913,
  " yucky": 4914,
  "anges": 4915,
  " moves": 4916,
  " introduce": 4917,
  " lemons": 4918,
  " crash": 4919,
  " beans": 4920,
  " floated": 4921,
  "edn": 4922,
  "ednesday": 4923,
  "ittens": 4924,
  "Welcome": 4925,
  " planned": 4926,
  " strike": 4927,
  " traffic": 4928,
  " include": 4929,
  " slap": 4930,
  " racing": 4931,
  " Lucky": 4932,
  "resses": 4933,
  " wisdom": 4934,
  " pur": 4935,
  " wags": 4936,
  " Finny": 4937,
  "laimed": 4938,
  " George": 4939,
  " luck": 4940,
  " following": 4941,
  " \n": 4942,
  " price": 4943,
  "ecting": 4944,
  " mama": 4945,
  " pitch": 4946,
  " below": 4947,
  " Elly": 4948,
  " Have": 4949,
  "Le": 4950,
  " weight": 4951,
  " exclaimed": 4952,
  "house": 4953,
  " buried": 4954,
  " follows": 4955,
  " comf": 4956,
  " ingredients": 4957,
  " recognize": 4958,
  " furt": 4959,
  "tain": 4960,
  " candles": 4961,
  " marbles": 4962,
  "Mimi": 4963,
  "riage": 4964,
  "unday": 4965,
  "emember": 4966,
  "eration": 4967,
  " Alex": 4968,
  " apart": 4969,
  " Wednesday": 4970,
  " growled": 4971,
  "uct": 4972,
  " Su": 4973,
  "ores": 4974,
  " conf": 4975,
  " folded": 4976,
  " teaching": 4977,
  " hopes": 4978,
  " closely": 4979,
  " Finn": 4980,
  " Who": 4981,
  " heel": 4982,
  " Sunday": 4983,
  " encourage": 4984,
  " Owl": 4985,
  " Paul": 4986,
  " zigzag": 4987,
  " pulling": 4988,
  " digg": 4989,
  " bouncy": 4990,
  " further": 4991,
  " chewed": 4992,
  " digging": 4993,
  " winning": 4994,
  "Woof": 4995,
  "With": 4996,
  " dresses": 4997,
  " image": 4998,
  "rec": 4999,
  "cery": 5000,
  " shouting": 5001,
  " grocery": 5002,
  " twisty": 5003,
  " peanuts": 5004,
  " puzzles": 5005,
  "bbing": 5006,
  " Dog": 5007,
  " scrat": 5008,
  "look": 5009,
  " chores": 5010,
  " whisper": 5011,
  " Is": 5012,
  " Froggy": 5013,
  " spike": 5014,
  " cape": 5015,
  " snail": 5016,
  " acorns": 5017,
  " worms": 5018,
  "hood": 5019,
  " deeper": 5020,
  " urge": 5021,
  "ifi": 5022,
  " exper": 5023,
  " Whenever": 5024,
  " Squeaky": 5025,
  " Tilly": 5026,
  " Grace": 5027,
  " planted": 5028,
  " attention": 5029,
  "ecture": 5030,
  " exercise": 5031,
  " Danny": 5032,
  " cub": 5033,
  " operation": 5034,
  " underground": 5035,
  " hon": 5036,
  " agre": 5037,
  " quite": 5038,
  " creatures": 5039,
  " simp": 5040,
  "Everyone": 5041,
  " struggle": 5042,
  "oral": 5043,
  " Mittens": 5044,
  " blood": 5045,
  "ddy": 5046,
  " lecture": 5047,
  " washing": 5048,
  " hurting": 5049,
  " vanished": 5050,
  " gifts": 5051,
  " dressed": 5052,
  " invitation": 5053,
  " solved": 5054,
  " licks": 5055,
  " snuggled": 5056,
  " Sharing": 5057,
  "ippy": 5058,
  " ble": 5059,
  " marriage": 5060,
  " quietly": 5061,
  "gie": 5062,
  " warning": 5063,
  " jazz": 5064,
  " breathe": 5065,
  "reci": 5066,
  " elephants": 5067,
  " sizes": 5068,
  " dried": 5069,
  " fallen": 5070,
  " landscape": 5071,
  "ories": 5072,
  " sprink": 5073,
  " neighbour": 5074,
  " mice": 5075,
  "uesday": 5076,
  " appreci": 5077,
  " Sophie": 5078,
  " Joey": 5079,
  " â": 5080,
  " eagerly": 5081,
  " sailing": 5082,
  " Coco": 5083,
  " paused": 5084,
  "ips": 5085,
  " counter": 5086,
  " Good": 5087,
  " Bounce": 5088,
  " Penny": 5089,
  " worth": 5090,
  "looking": 5091,
  " Rock": 5092,
  " oxygen": 5093,
  "Because": 5094,
  " release": 5095,
  " shined": 5096,
  "Not": 5097,
  "pted": 5098,
  " reaches": 5099,
  " balan": 5100,
  " Zara": 5101,
  " oh": 5102,
  "isses": 5103,
  " kisses": 5104,
  " style": 5105,
  " bricks": 5106,
  " glo": 5107,
  " plays": 5108,
  " Tuesday": 5109,
  " ideas": 5110,
  "sed": 5111,
  " inst": 5112,
  " wob": 5113,
  " fireworks": 5114,
  "Bella": 5115,
  "iggly": 5116,
  "ucked": 5117,
  " seeing": 5118,
  " flap": 5119,
  "ops": 5120,
  " accepted": 5121,
  "right": 5122,
  " Pip": 5123,
  "Today": 5124,
  " blink": 5125,
  " Ros": 5126,
  "mm": 5127,
  " tremb": 5128,
  " muddy": 5129,
  "These": 5130,
  " memory": 5131,
  " married": 5132,
  " tomatoes": 5133,
  " Annie": 5134,
  " exit": 5135,
  " wagging": 5136,
  " fash": 5137,
  " Charlie": 5138,
  "Remy": 5139,
  " wandered": 5140,
  "unately": 5141,
  "ipping": 5142,
  " gloves": 5143,
  " captain": 5144,
  " pillows": 5145,
  " receive": 5146,
  " resp": 5147,
  " Pinky": 5148,
  "raged": 5149,
  " during": 5150,
  " Everything": 5151,
  "etch": 5152,
  " petals": 5153,
  " web": 5154,
  " watered": 5155,
  " Eventually": 5156,
  " si": 5157,
  "ived": 5158,
  " manage": 5159,
  " pinched": 5160,
  " brings": 5161,
  " vanish": 5162,
  " cakes": 5163,
  " fashion": 5164,
  " Bluey": 5165,
  " printer": 5166,
  " destroyed": 5167,
  " treasures": 5168,
  "nce": 5169,
  " allow": 5170,
  "ups": 5171,
  " hadn": 5172,
  " worse": 5173,
  " Fifi": 5174,
  "Surpr": 5175,
  " vel": 5176,
  " hits": 5177,
  " bur": 5178,
  "xu": 5179,
  " velvet": 5180,
  " appear": 5181,
  " disagree": 5182,
  " catching": 5183,
  "do": 5184,
  " scattered": 5185,
  " Ro": 5186,
  " memories": 5187,
  " sorts": 5188,
  " Papa": 5189,
  " hers": 5190,
  " scolded": 5191,
  " signs": 5192,
  " oranges": 5193,
  " pears": 5194,
  " bones": 5195,
  " rang": 5196,
  " seats": 5197,
  " sits": 5198,
  " snapped": 5199,
  " gazed": 5200,
  "uxu": 5201,
  " raised": 5202,
  "Bl": 5203,
  " Maria": 5204,
  " zipped": 5205,
  " pies": 5206,
  " prints": 5207,
  " shot": 5208,
  " sliding": 5209,
  " God": 5210,
  " fro": 5211,
  " easier": 5212,
  " skills": 5213,
  "ssible": 5214,
  " climbs": 5215,
  " twirled": 5216,
  "ccer": 5217,
  " blankets": 5218,
  " forgotten": 5219,
  " baked": 5220,
  "ester": 5221,
  "Yum": 5222,
  "esterday": 5223,
  " difference": 5224,
  "orted": 5225,
  " luxu": 5226,
  " golden": 5227,
  "ising": 5228,
  " kitty": 5229,
  " Tw": 5230,
  " cutting": 5231,
  " season": 5232,
  "aggie": 5233,
  " crow": 5234,
  " nowhere": 5235,
  "ah": 5236,
  " soccer": 5237,
  " dared": 5238,
  " bites": 5239,
  " Henry": 5240,
  " Harry": 5241,
  "anny": 5242,
  " lung": 5243,
  " celebrated": 5244,
  "choo": 5245,
  " straight": 5246,
  "chie": 5247,
  " unlocked": 5248,
  "sters": 5249,
  " sorting": 5250,
  " bleed": 5251,
  " collected": 5252,
  "aped": 5253,
  " welcomed": 5254,
  "ding": 5255,
  " visited": 5256,
  " spoons": 5257,
  " ours": 5258,
  " stitch": 5259,
  " jogging": 5260,
  "Surprise": 5261,
  "medi": 5262,
  " emer": 5263,
  " Spark": 5264,
  "mediately": 5265,
  " isn": 5266,
  " tong": 5267,
  " trave": 5268,
  " winner": 5269,
  "umble": 5270,
  " ruin": 5271,
  " since": 5272,
  " prett": 5273,
  "Ok": 5274,
  "Moral": 5275,
  " Tony": 5276,
  " attached": 5277,
  " weeping": 5278,
  " marching": 5279,
  " luxury": 5280,
  " simple": 5281,
  " Each": 5282,
  " shouldn": 5283,
  " guessed": 5284,
  " zero": 5285,
  " created": 5286,
  " stuffed": 5287,
  " pets": 5288,
  "ction": 5289,
  " famil": 5290,
  " waist": 5291,
  " urged": 5292,
  " bowed": 5293,
  " selling": 5294,
  " floating": 5295,
  "rr": 5296,
  " Smith": 5297,
  " bye": 5298,
  " King": 5299,
  " kingdom": 5300,
  " vict": 5301,
  " olives": 5302,
  " kicking": 5303,
  " Wiggly": 5304,
  " punished": 5305,
  " Liz": 5306,
  " Baby": 5307,
  " toes": 5308,
  "sit": 5309,
  " grant": 5310,
  " muscles": 5311,
  " Rosie": 5312,
  " jewels": 5313,
  " beds": 5314,
  " melted": 5315,
  "Goodbye": 5316,
  " slice": 5317,
  " grin": 5318,
  " understanding": 5319,
  " collection": 5320,
  " tore": 5321,
  " measured": 5322,
  " cras": 5323,
  "aker": 5324,
  "omeday": 5325,
  " trapped": 5326,
  "iers": 5327,
  " lined": 5328,
  "'ve": 5329,
  " acted": 5330,
  " encouraged": 5331,
  "fortunately": 5332,
  "va": 5333,
  " Sandy": 5334,
  " received": 5335,
  " waffles": 5336,
  " Before": 5337,
  " Wally": 5338,
  " west": 5339,
  " meow": 5340,
  "ents": 5341,
  " patterns": 5342,
  "rin": 5343,
  "ino": 5344,
  " brus": 5345,
  "eath": 5346,
  " mouths": 5347,
  "kins": 5348,
  " bang": 5349,
  "ring": 5350,
  " Kate": 5351,
  "Meow": 5352,
  " peaches": 5353,
  " breeze": 5354,
  "aded": 5355,
  "une": 5356,
  " printed": 5357,
  " soldiers": 5358,
  " someday": 5359,
  " potatoes": 5360,
  " pupil": 5361,
  "umes": 5362,
  " Millie": 5363,
  " drinks": 5364,
  " shed": 5365,
  " experience": 5366,
  " Tuna": 5367,
  " presents": 5368,
  " firef": 5369,
  " Ruby": 5370,
  " surround": 5371,
  " none": 5372,
  "osed": 5373,
  " voices": 5374,
  "eep": 5375,
  " drinking": 5376,
  " Uncle": 5377,
  "ishing": 5378,
  " relaxed": 5379,
  " victory": 5380,
  "cus": 5381,
  " paints": 5382,
  " breaking": 5383,
  " hurried": 5384,
  "eve": 5385,
  "ission": 5386,
  " twink": 5387,
  " tongue": 5388,
  " costumes": 5389,
  " flat": 5390,
  " mentioned": 5391,
  " begged": 5392,
  " teasing": 5393,
  " whistling": 5394,
  " fetch": 5395,
  " permission": 5396,
  " disagreed": 5397,
  " sip": 5398,
  " pearl": 5399,
  "akes": 5400,
  " stro": 5401,
  "vest": 5402,
  " These": 5403,
  " appro": 5404,
  " esc": 5405,
  " skipping": 5406,
  " fishing": 5407,
  " May": 5408,
  "Leo": 5409,
  " highest": 5410,
  " pra": 5411,
  " watches": 5412,
  " sorted": 5413,
  " ringing": 5414,
  "ship": 5415,
  " tonight": 5416,
  " Bo": 5417,
  " opin": 5418,
  " lets": 5419,
  "icing": 5420,
  " Qu": 5421,
  " perfectly": 5422,
  " shadows": 5423,
  " immediately": 5424,
  " herbs": 5425,
  " warmth": 5426,
  " spit": 5427,
  " remained": 5428,
  "ther": 5429,
  " Its": 5430,
  "walk": 5431,
  "Bobby": 5432,
  "irring": 5433,
  "Jen": 5434,
  " sneak": 5435,
  " six": 5436,
  " lips": 5437,
  " kneeled": 5438,
  "Blue": 5439,
  " contest": 5440,
  " Che": 5441,
  "utter": 5442,
  " cartoons": 5443,
  " sidewalk": 5444,
  " colours": 5445,
  " stamps": 5446,
  " ago": 5447,
  "Ha": 5448,
  " Boo": 5449,
  " Toto": 5450,
  " Follow": 5451,
  " east": 5452,
  " headed": 5453,
  "oved": 5454,
  "\",": 5455,
  " strang": 5456,
  " ladyb": 5457,
  " fed": 5458,
  " supposed": 5459,
  " roots": 5460,
  " lick": 5461,
  " crunch": 5462,
  " mixing": 5463,
  " works": 5464,
  " decorations": 5465,
  " melting": 5466,
  " known": 5467,
  " emergen": 5468,
  "Mandy": 5469,
  " rested": 5470,
  " Ab": 5471,
  " Suzy": 5472,
  " lines": 5473,
  " Jul": 5474,
  " lily": 5475,
  " instr": 5476,
  " laid": 5477,
  " Gr": 5478,
  " succeeded": 5479,
  " cones": 5480,
  " wiggle": 5481,
  "ety": 5482,
  "sing": 5483,
  " setting": 5484,
  " shock": 5485,
  " Slow": 5486,
  " studied": 5487,
  " strangers": 5488,
  " Rocky": 5489,
  "Really": 5490,
  " twigs": 5491,
  " brid": 5492,
  " theirs": 5493,
  " Dr": 5494,
  " girls": 5495,
  "boo": 5496,
  " screams": 5497,
  "!\",": 5498,
  " lands": 5499,
  " ordered": 5500,
  " moments": 5501,
  " stirring": 5502,
  " fields": 5503,
  " alright": 5504,
  " stealing": 5505,
  "Andy": 5506,
  "ded": 5507,
  " rul": 5508,
  " bravely": 5509,
  "avid": 5510,
  " Both": 5511,
  " mister": 5512,
  "!'": 5513,
  " invest": 5514,
  " scratched": 5515,
  " playtime": 5516,
  " ripped": 5517,
  " investig": 5518,
  " tucked": 5519,
  " burning": 5520,
  " resting": 5521,
  "ishes": 5522,
  " Clara": 5523,
  " Chicky": 5524,
  " bridges": 5525,
  " officer": 5526,
  "please": 5527,
  "Sammy": 5528,
  "Bird": 5529,
  "abies": 5530,
  " settled": 5531,
  " matched": 5532,
  " achie": 5533,
  " tex": 5534,
  " texture": 5535,
  "Happy": 5536,
  " waits": 5537,
  " turning": 5538,
  " Sky": 5539,
  "Peter": 5540,
  "ored": 5541,
  " trembling": 5542,
  "isten": 5543,
  " nails": 5544,
  "atie": 5545,
  " muffins": 5546,
  " Someone": 5547,
  "ids": 5548,
  " escaped": 5549,
  " James": 5550,
  " investigate": 5551,
  " piles": 5552,
  "osity": 5553,
  " broom": 5554,
  " ladybug": 5555,
  " sore": 5556,
  " Pepper": 5557,
  " appreciate": 5558,
  " admir": 5559,
  " threat": 5560,
  " babies": 5561,
  " silence": 5562,
  " sisters": 5563,
  " emergency": 5564,
  " area": 5565,
  " dads": 5566,
  "ides": 5567,
  " answers": 5568,
  " pupp": 5569,
  " keys": 5570,
  " chewing": 5571,
  " slapped": 5572,
  " wiz": 5573,
  " importance": 5574,
  " served": 5575,
  "Boo": 5576,
  " Hop": 5577,
  " safety": 5578,
  "izing": 5579,
  "Bu": 5580,
  "Would": 5581,
  " sparkle": 5582,
  " touching": 5583,
  " Later": 5584,
  " soared": 5585,
  "igail": 5586,
  " sings": 5587,
  " hen": 5588,
  "allen": 5589,
  "Ella": 5590,
  "bers": 5591,
  "antly": 5592,
  "Momo": 5593,
  " Dino": 5594,
  " amazement": 5595,
  " keeps": 5596,
  " challen": 5597,
  " twin": 5598,
  " hesit": 5599,
  " revealed": 5600,
  "achel": 5601,
  "anna": 5602,
  " item": 5603,
  " dire": 5604,
  " soaked": 5605,
  "zing": 5606,
  " writ": 5607,
  " foods": 5608,
  " rides": 5609,
  " dinosaurs": 5610,
  " recorded": 5611,
  " tickle": 5612,
  " inch": 5613,
  " Zigzag": 5614,
  " Me": 5615,
  " wizard": 5616,
  " vet": 5617,
  " trips": 5618,
  " glowed": 5619,
  " An": 5620,
  " Frog": 5621,
  "Mmm": 5622,
  " beamed": 5623,
  " hi": 5624,
  " quack": 5625,
  " curled": 5626,
  " hated": 5627,
  " wink": 5628,
  " shopping": 5629,
  " eats": 5630,
  " Bug": 5631,
  "Eventually": 5632,
  " praised": 5633,
  " wooden": 5634,
  " bringing": 5635,
  " mittens": 5636,
  " studying": 5637,
  " guy": 5638,
  " brushes": 5639,
  " spaceship": 5640,
  " crawling": 5641,
  " gust": 5642,
  " Something": 5643,
  "Cat": 5644,
  " ruler": 5645,
  " flav": 5646,
  " downstairs": 5647,
  " shooting": 5648,
  " tastes": 5649,
  " napping": 5650,
  " sprinkles": 5651,
  " marks": 5652,
  " cuddled": 5653,
  " dot": 5654,
  "hello": 5655,
  "plash": 5656,
  " fut": 5657,
  "ales": 5658,
  "aved": 5659,
  " future": 5660,
  " monsters": 5661,
  " collecting": 5662,
  " measuring": 5663,
  " Happy": 5664,
  " families": 5665,
  "'.": 5666,
  " Out": 5667,
  " First": 5668,
  " Mo": 5669,
  " thrill": 5670,
  " oat": 5671,
  "irts": 5672,
  " result": 5673,
  " approached": 5674,
  " Rabbit": 5675,
  "Jake": 5676,
  " crunchy": 5677,
  "act": 5678,
  "Un": 5679,
  " remem": 5680,
  " bleeding": 5681,
  " remembers": 5682,
  " beat": 5683,
  " nicer": 5684,
  " sneaky": 5685,
  " disturbed": 5686,
  " leader": 5687,
  " scaring": 5688,
  "Or": 5689,
  " peel": 5690,
  "hind": 5691,
  " Hope": 5692,
  " firemen": 5693,
  " neighborhood": 5694,
  " Star": 5695,
  " grey": 5696,
  " Not": 5697,
  " motion": 5698,
  " noon": 5699,
  " possible": 5700,
  "Emily": 5701,
  "Somet": 5702,
  " apologized": 5703,
  " weighed": 5704,
  " Did": 5705,
  "ues": 5706,
  " tickets": 5707,
  " naps": 5708,
  "Cl": 5709,
  " loose": 5710,
  " pride": 5711,
  " youth": 5712,
  " swims": 5713,
  "ped": 5714,
  " strings": 5715,
  " recognized": 5716,
  " siren": 5717,
  " poking": 5718,
  "fied": 5719,
  " Ho": 5720,
  "cious": 5721,
  "ha": 5722,
  " tricked": 5723,
  "elvet": 5724,
  " gained": 5725,
  " wonders": 5726,
  " crashed": 5727,
  " wanting": 5728,
  " obe": 5729,
  " seesaw": 5730,
  " worker": 5731,
  "unnies": 5732,
  "ls": 5733,
  " draws": 5734,
  "oming": 5735,
  " scooped": 5736,
  ".'": 5737,
  " zooming": 5738,
  " opinion": 5739,
  " yelling": 5740,
  " prepared": 5741,
  " grinned": 5742,
  " Slowly": 5743,
  " awe": 5744,
  " poems": 5745,
  " doggy": 5746,
  " Beep": 5747,
  " acting": 5748,
  " happiest": 5749,
  " chef": 5750,
  " sneaked": 5751,
  " respons": 5752,
  " Always": 5753,
  " eff": 5754,
  " Lizzy": 5755,
  " owned": 5756,
  " bunnies": 5757,
  " anytime": 5758,
  " struck": 5759,
  " pedals": 5760,
  "oys": 5761,
  " knelt": 5762,
  "ena": 5763,
  "Ollie": 5764,
  " secrets": 5765,
  " pause": 5766,
  " decorated": 5767,
  " horns": 5768,
  " agreement": 5769,
  " Squ": 5770,
  "ided": 5771,
  " frost": 5772,
  " tallest": 5773,
  " obey": 5774,
  "Remember": 5775,
  "riends": 5776,
  "ogo": 5777,
  " Stop": 5778,
  "Have": 5779,
  " decides": 5780,
  " Once": 5781,
  " behaved": 5782,
  " tugged": 5783,
  " sides": 5784,
  " woof": 5785,
  "lier": 5786,
  " slim": 5787,
  "zen": 5788,
  " goodnight": 5789,
  " keeper": 5790,
  " chirped": 5791,
  " sparkling": 5792,
  " precious": 5793,
  "mother": 5794,
  "ien": 5795,
  " repeated": 5796,
  "Tr": 5797,
  " claps": 5798,
  " snowballs": 5799,
  "affes": 5800,
  " contain": 5801,
  "indy": 5802,
  "ud": 5803,
  "rs": 5804,
  " Ray": 5805,
  " ourselves": 5806,
  "allow": 5807,
  " giraffes": 5808,
  " balancing": 5809,
  " kindly": 5810,
  " spending": 5811,
  " writes": 5812,
  "ays": 5813,
  "ppers": 5814,
  " Like": 5815,
  " prop": 5816,
  "omas": 5817,
  " hissed": 5818,
  " frozen": 5819,
  "First": 5820,
  " frosting": 5821,
  " effort": 5822,
  " buzzing": 5823,
  " struggled": 5824,
  "oh": 5825,
  " Steve": 5826,
  " admiring": 5827,
  " rele": 5828,
  "iggy": 5829,
  " Velvet": 5830,
  " sweeties": 5831,
  " slimy": 5832,
  " brushed": 5833,
  " bloomed": 5834,
  "Susie": 5835,
  " Am": 5836,
  " polished": 5837,
  " Zoe": 5838,
  "arth": 5839,
  "anted": 5840,
  " comfy": 5841,
  " boo": 5842,
  " staying": 5843,
  " rubbing": 5844,
  " pockets": 5845,
  " rocking": 5846,
  "Ducky": 5847,
  " thrilled": 5848,
  " beside": 5849,
  " comple": 5850,
  " Aunt": 5851,
  " Maggie": 5852,
  "Ah": 5853,
  " eight": 5854,
  " machines": 5855,
  "urry": 5856,
  "isdom": 5857,
  " earlier": 5858,
  " seems": 5859,
  " yesterday": 5860,
  " rust": 5861,
  " Keep": 5862,
  " traveled": 5863,
  "Sp": 5864,
  " folding": 5865,
  " boom": 5866,
  " cracked": 5867,
  " hugging": 5868,
  "ities": 5869,
  " Stitch": 5870,
  " radishes": 5871,
  " opening": 5872,
  " loving": 5873,
  " circus": 5874,
  " surrounded": 5875,
  " curiosity": 5876,
  " Rachel": 5877,
  " demanded": 5878,
  " spraying": 5879,
  " paintings": 5880,
  " Green": 5881,
  "amie": 5882,
  " removed": 5883,
  " gaze": 5884,
  " honk": 5885,
  " pebbles": 5886,
  " zookeeper": 5887,
  " hardly": 5888,
  " catches": 5889,
  " sting": 5890,
  "edding": 5891,
  " powers": 5892,
  " stripes": 5893,
  " Pippa": 5894,
  " loaded": 5895,
  "Sometimes": 5896,
  " splashes": 5897,
  " pots": 5898,
  " petted": 5899,
  " matching": 5900,
  " David": 5901,
  "Thanks": 5902,
  " stare": 5903,
  " belly": 5904,
  " toss": 5905,
  "Yummy": 5906,
  "ibb": 5907,
  " apologize": 5908,
  " whatever": 5909,
  " comforted": 5910,
  " rocked": 5911,
  " Bree": 5912,
  " decision": 5913,
  " ribbons": 5914,
  " Birdie": 5915,
  " Joy": 5916,
  "ern": 5917,
  " struggling": 5918,
  " deser": 5919,
  " expected": 5920,
  " steep": 5921,
  " protected": 5922,
  "wh": 5923,
  " neighbors": 5924,
  " chases": 5925,
  " smiley": 5926,
  "During": 5927,
  " granted": 5928,
  " crumb": 5929,
  " Mat": 5930,
  " purred": 5931,
  " diving": 5932,
  " sadness": 5933,
  "Whiskers": 5934,
  " organizing": 5935,
  "lowers": 5936,
  " eagle": 5937,
  " heroes": 5938,
  " dipped": 5939,
  " sunlight": 5940,
  " lied": 5941,
  " pastels": 5942,
  " Frank": 5943,
  " safer": 5944,
  " roads": 5945,
  "Ex": 5946,
  " scru": 5947,
  " argued": 5948,
  " Milly": 5949,
  " Water": 5950,
  " goals": 5951,
  " discovery": 5952,
  " Abigail": 5953,
  " villag": 5954,
  " peered": 5955,
  "Ro": 5956,
  " Bouncy": 5957,
  "use": 5958,
  "ana": 5959,
  " tim": 5960,
  "loe": 5961,
  " dragons": 5962,
  " buckets": 5963,
  " buildings": 5964,
  " parties": 5965,
  " beard": 5966,
  " wedding": 5967,
  "Rex": 5968,
  " flutter": 5969,
  " planets": 5970,
  " Robby": 5971,
  " ann": 5972,
  " polishing": 5973,
  " fasc": 5974,
  "ira": 5975,
  " released": 5976,
  " Chr": 5977,
  " crabs": 5978,
  " Gogo": 5979,
  " tails": 5980,
  " Watch": 5981,
  " sausages": 5982,
  " Ju": 5983,
  " argu": 5984,
  " bottles": 5985,
  " contro": 5986,
  " wiggled": 5987,
  " teased": 5988,
  "uke": 5989,
  " arguing": 5990,
  " sled": 5991,
  " dragged": 5992,
  " padd": 5993,
  " Car": 5994,
  " roaring": 5995,
  " clearing": 5996,
  " movies": 5997,
  " shirts": 5998,
  " gathering": 5999,
  " airpl": 6000,
  " wid": 6001,
  "joyed": 6002,
  " spiders": 6003,
  " teaches": 6004,
  " limes": 6005,
  " Remember": 6006,
  " Dare": 6007,
  " overjoyed": 6008,
  " actually": 6009,
  " sighs": 6010,
  " continue": 6011,
  " cuddle": 6012,
  " soaring": 6013,
  " Jess": 6014,
  " smallest": 6015,
  " drives": 6016,
  " sparkles": 6017,
  " rip": 6018,
  " cubes": 6019,
  " situ": 6020,
  " refres": 6021,
  " challenge": 6022,
  " Olly": 6023,
  " talent": 6024,
  " grandmother": 6025,
  " Splash": 6026,
  " pouring": 6027,
  "umm": 6028,
  " fascin": 6029,
  " pretends": 6030,
  " cuts": 6031,
  " quarreling": 6032,
  " peppers": 6033,
  " bank": 6034,
  " shivered": 6035,
  " mane": 6036,
  " dusty": 6037,
  "ley": 6038,
  " villagers": 6039,
  " wondering": 6040,
  " stretching": 6041,
  "njoy": 6042,
  "ib": 6043,
  " weeks": 6044,
  " darker": 6045,
  " wherever": 6046,
  "jam": 6047,
  "Tiny": 6048,
  "sses": 6049,
  " X": 6050,
  " onwards": 6051,
  " rings": 6052,
  " Katie": 6053,
  " united": 6054,
  "Achoo": 6055,
  " bead": 6056,
  " Being": 6057,
  " Everyday": 6058,
  " prettiest": 6059,
  "Johnny": 6060,
  " caut": 6061,
  " realize": 6062,
  " company": 6063,
  " penguins": 6064,
  "annah": 6065,
  "Luna": 6066,
  "Fr": 6067,
  " Spring": 6068,
  " bedtime": 6069,
  " completed": 6070,
  " Wisdom": 6071,
  " Leave": 6072,
  " knights": 6073,
  "â.": 6074,
  " flags": 6075,
  " Je": 6076,
  " Because": 6077,
  " Prin": 6078,
  " playroom": 6079,
  " actions": 6080,
  " Zero": 6081,
  " learns": 6082,
  " gotten": 6083,
  " patience": 6084,
  "inda": 6085,
  "dam": 6086,
  " shrug": 6087,
  " kites": 6088,
  " responsible": 6089,
  " fears": 6090,
  " destination": 6091,
  " reply": 6092,
  " wires": 6093,
  " wrist": 6094,
  " dam": 6095,
  "aws": 6096,
  " packing": 6097,
  " applauded": 6098,
  " mountains": 6099,
  " fault": 6100,
  " scrubbed": 6101,
  " ma": 6102,
  " crept": 6103,
  " Ava": 6104,
  "Uh": 6105,
  " Earth": 6106,
  " satis": 6107,
  " phot": 6108,
  " third": 6109,
  " pencils": 6110,
  " wins": 6111,
  " sticking": 6112,
  " baker": 6113,
  " visiting": 6114,
  " wound": 6115,
  " uses": 6116,
  " peas": 6117,
  " reminder": 6118,
  " control": 6119,
  "Grandpa": 6120,
  "ashed": 6121,
  " joking": 6122,
  " awake": 6123,
  " instruct": 6124,
  " healed": 6125,
  " Put": 6126,
  " staring": 6127,
  " hitting": 6128,
  " Fish": 6129,
  " screaming": 6130,
  " begin": 6131,
  "Rob": 6132,
  "uckily": 6133,
  " Friends": 6134,
  " Moo": 6135,
  "icorn": 6136,
  " helmets": 6137,
  "enty": 6138,
  " unicorn": 6139,
  "ler": 6140,
  "seek": 6141,
  " towels": 6142,
  " Lou": 6143,
  "Silly": 6144,
  " chips": 6145,
  " creation": 6146,
  "ica": 6147,
  " wasted": 6148,
  "bie": 6149,
  " Behind": 6150,
  "Mar": 6151,
  "laire": 6152,
  " masks": 6153,
  " items": 6154,
  " forgi": 6155,
  " firefight": 6156,
  " lollipops": 6157,
  " outdo": 6158,
  "Watch": 6159,
  " heav": 6160,
  " guns": 6161,
  " Hippy": 6162,
  " died": 6163,
  " seas": 6164,
  " glitter": 6165,
  "uddles": 6166,
  " arrive": 6167,
  " stole": 6168,
  " weren": 6169,
  " scales": 6170,
  " accom": 6171,
  " perched": 6172,
  " achieve": 6173,
  " logs": 6174,
  " practicing": 6175,
  "die": 6176,
  "ining": 6177,
  " whose": 6178,
  " instructions": 6179,
  " pumpkins": 6180,
  "Stay": 6181,
  " batteries": 6182,
  " swoop": 6183,
  " agrees": 6184,
  " candies": 6185,
  " project": 6186,
  " snakes": 6187,
  " chirping": 6188,
  "Benny": 6189,
  " shelves": 6190,
  " protecting": 6191,
  " parked": 6192,
  " exact": 6193,
  " Cra": 6194,
  " patiently": 6195,
  " activ": 6196,
  " videos": 6197,
  " shoulders": 6198,
  " blows": 6199,
  " promises": 6200,
  "hee": 6201,
  "Fo": 6202,
  " dent": 6203,
  "go": 6204,
  "usan": 6205,
  "uest": 6206,
  "ners": 6207,
  "jamas": 6208,
  " airplane": 6209,
  " examined": 6210,
  "Doggy": 6211,
  " roses": 6212,
  " accompl": 6213,
  " tasks": 6214,
  "Dave": 6215,
  " Hoot": 6216,
  "Poppy": 6217,
  " Bop": 6218,
  "Bunny": 6219,
  " beads": 6220,
  " bowls": 6221,
  " crumbs": 6222,
  "zes": 6223,
  " listens": 6224,
  " Love": 6225,
  " Brownie": 6226,
  " Catty": 6227,
  "Pete": 6228,
  " Ol": 6229,
  " dolphins": 6230,
  " cough": 6231,
  " bunch": 6232,
  " guest": 6233,
  " requested": 6234,
  "cakes": 6235,
  " remote": 6236,
  " improved": 6237,
  " reaching": 6238,
  " brand": 6239,
  "anta": 6240,
  " Jan": 6241,
  " alien": 6242,
  "ayla": 6243,
  " Bye": 6244,
  "irm": 6245,
  " copy": 6246,
  " Sun": 6247,
  " cheering": 6248,
  " photos": 6249,
  " Julie": 6250,
  " Chew": 6251,
  "Bad": 6252,
  " Blink": 6253,
  "Time": 6254,
  " cans": 6255,
  " Cuddles": 6256,
  " timer": 6257,
  " By": 6258,
  " replaced": 6259,
  "athy": 6260,
  " workers": 6261,
  " stern": 6262,
  " Enjoy": 6263,
  "aster": 6264,
  " neither": 6265,
  "Mike": 6266,
  " misses": 6267,
  " passing": 6268,
  " curtains": 6269,
  " confl": 6270,
  "Chirpy": 6271,
  " rainbows": 6272,
  " rubs": 6273,
  "George": 6274,
  "uctantly": 6275,
  " rolls": 6276,
  " patted": 6277,
  " pajamas": 6278,
  "ilo": 6279,
  " outdoors": 6280,
  "esome": 6281,
  " complaining": 6282,
  "dies": 6283,
  " Squirrel": 6284,
  "Lola": 6285,
  "Run": 6286,
  " puppet": 6287,
  " Princess": 6288,
  " beneath": 6289,
  " closes": 6290,
  " drums": 6291,
  " lap": 6292,
  " tune": 6293,
  " Beth": 6294,
  " Mouse": 6295,
  " filling": 6296,
  "Miss": 6297,
  " refuse": 6298,
  "angled": 6299,
  " Sorry": 6300,
  " sweat": 6301,
  " faced": 6302,
  "...": 6303,
  " seven": 6304,
  " balanced": 6305,
  " rescued": 6306,
  " quacked": 6307,
  "neath": 6308,
  "bl": 6309,
  " Abby": 6310,
  "Paul": 6311,
  "istle": 6312,
  " awesome": 6313,
  " 1": 6314,
  " However": 6315,
  " mission": 6316,
  " conflict": 6317,
  " cautious": 6318,
  " guys": 6319,
  " observed": 6320,
  " vent": 6321,
  " cause": 6322,
  " introduc": 6323,
  " Thomas": 6324,
  " pastries": 6325,
  "nie": 6326,
  "  ": 6327,
  " Our": 6328,
  " exactly": 6329,
  " doctors": 6330,
  " rule": 6331,
  " becoming": 6332,
  " policeman": 6333,
  " mes": 6334,
  " rockets": 6335,
  "uly": 6336,
  "you": 6337,
  " Yes": 6338,
  " Dot": 6339,
  " fairies": 6340,
  "lay": 6341,
  " pout": 6342,
  "An": 6343,
  " insist": 6344,
  " blooming": 6345,
  " tractor": 6346,
  " farther": 6347,
  " Sad": 6348,
  "avi": 6349,
  "Oops": 6350,
  "Great": 6351,
  " included": 6352,
  " remembering": 6353,
  " curly": 6354,
  "Zoom": 6355,
  "Fine": 6356,
  " teamwork": 6357,
  "zie": 6358,
  " fascinated": 6359,
  " wobbled": 6360,
  " slam": 6361,
  " truly": 6362,
  " helpers": 6363,
  " sights": 6364,
  " paddle": 6365,
  " stumble": 6366,
  " firm": 6367,
  " Jilly": 6368,
  "Henry": 6369,
  " caused": 6370,
  "acob": 6371,
  " prayer": 6372,
  " recording": 6373,
  " spong": 6374,
  "kelly": 6375,
  "ais": 6376,
  " traded": 6377,
  " starfish": 6378,
  " supplies": 6379,
  " pointy": 6380,
  " thro": 6381,
  " situation": 6382,
  " inviting": 6383,
  "eah": 6384,
  " neighbourhood": 6385,
  " everyday": 6386,
  "gers": 6387,
  " ornaments": 6388,
  " Ally": 6389,
  " valued": 6390,
  "inkle": 6391,
  " adding": 6392,
  "Some": 6393,
  " reluctantly": 6394,
  " dots": 6395,
  " stays": 6396,
  " prettier": 6397,
  " tables": 6398,
  " bare": 6399,
  " desert": 6400,
  " snowmen": 6401,
  " steady": 6402,
  " minerals": 6403,
  "araway": 6404,
  " thorn": 6405,
  "ody": 6406,
  " ast": 6407,
  " glasses": 6408,
  " faraway": 6409,
  " Foxy": 6410,
  " Get": 6411,
  " swooped": 6412,
  " Two": 6413,
  " Welcome": 6414,
  " Sure": 6415,
  " unf": 6416,
  " forks": 6417,
  " usual": 6418,
  " usually": 6419,
  "Polly": 6420,
  " dar": 6421,
  " Jamie": 6422,
  " sneezing": 6423,
  " winked": 6424,
  " solut": 6425,
  " loading": 6426,
  " sponge": 6427,
  " Quick": 6428,
  " insects": 6429,
  " pans": 6430,
  "Dog": 6431,
  " sobbed": 6432,
  " Santa": 6433,
  " growling": 6434,
  "James": 6435,
  "sm": 6436,
  " throat": 6437,
  " Chloe": 6438,
  "arter": 6439,
  " Josh": 6440,
  " noses": 6441,
  " Dizzy": 6442,
  " confident": 6443,
  " scarves": 6444,
  " yourselves": 6445,
  " Want": 6446,
  "agull": 6447,
  " homework": 6448,
  " superheroes": 6449,
  " Stay": 6450,
  "Joey": 6451,
  " smarter": 6452,
  " windy": 6453,
  " librarian": 6454,
  " Kids": 6455,
  "Tina": 6456,
  " gems": 6457,
  "Days": 6458,
  "ora": 6459,
  " underneath": 6460,
  " kicks": 6461,
  " knowled": 6462,
  " itchy": 6463,
  " knowledge": 6464,
  " jackets": 6465,
  " For": 6466,
  " Skelly": 6467,
  " surface": 6468,
  " untie": 6469,
  " comm": 6470,
  " Duck": 6471,
  " princesses": 6472,
  "...\"": 6473,
  "Those": 6474,
  "ido": 6475,
  "eed": 6476,
  "Hold": 6477,
  "Yeah": 6478,
  "coon": 6479,
  " squares": 6480,
  " Henny": 6481,
  " warnings": 6482,
  " giggling": 6483,
  " reads": 6484,
  "iar": 6485,
  "vin": 6486,
  " choo": 6487,
  "Our": 6488,
  " younger": 6489,
  "son": 6490,
  " clowns": 6491,
  " Mix": 6492,
  "Toby": 6493,
  " ropes": 6494,
  " biting": 6495,
  " crowd": 6496,
  " Unfortunately": 6497,
  "pite": 6498,
  "Danny": 6499,
  "True": 6500,
  " seagull": 6501,
  " paddled": 6502,
  " wears": 6503,
  " delivered": 6504,
  " Mon": 6505,
  " buzzed": 6506,
  " twirl": 6507,
  " onions": 6508,
  " complained": 6509,
  " bumpy": 6510,
  " stem": 6511,
  "Ew": 6512,
  " piggy": 6513,
  "Mrs": 6514,
  " Anne": 6515,
  " direction": 6516,
  " dived": 6517,
  "ouch": 6518,
  "Roar": 6519,
  " startled": 6520,
  " tangled": 6521,
  "ults": 6522,
  " leaning": 6523,
  "bbie": 6524,
  " Ant": 6525,
  " Jones": 6526,
  " badge": 6527,
  " Po": 6528,
  "Grace": 6529,
  " unp": 6530,
  " deal": 6531,
  "though": 6532,
  "Annie": 6533,
  " vowed": 6534,
  " napkins": 6535,
  " tickled": 6536,
  " risk": 6537,
  "anes": 6538,
  " covers": 6539,
  " pec": 6540,
  "Shh": 6541,
  " yells": 6542,
  " satisfied": 6543,
  "int": 6544,
  " knocks": 6545,
  " refreshed": 6546,
  " Sc": 6547,
  "tuce": 6548,
  "cuse": 6549,
  " cous": 6550,
  " arrows": 6551,
  "Maggie": 6552,
  " Whistle": 6553,
  " wipes": 6554,
  "Pe": 6555,
  " speaking": 6556,
  " guessing": 6557,
  " lettuce": 6558,
  "Unfortunately": 6559,
  " Quack": 6560,
  " ripe": 6561,
  " Susan": 6562,
  " choices": 6563,
  " hides": 6564,
  " Dodo": 6565,
  " Rover": 6566,
  "Buzz": 6567,
  " signed": 6568,
  " slower": 6569,
  " seeker": 6570,
  " introduced": 6571,
  " creating": 6572,
  " singer": 6573,
  " Matt": 6574,
  " froze": 6575,
  " cent": 6576,
  "uggles": 6577,
  " joked": 6578,
  " squeal": 6579,
  " toaster": 6580,
  " explorers": 6581,
  "fit": 6582,
  " avo": 6583,
  "anging": 6584,
  " praying": 6585,
  "Sophie": 6586,
  " discovering": 6587,
  " written": 6588,
  " provided": 6589,
  " Dara": 6590,
  " refle": 6591,
  " Lion": 6592,
  "Excuse": 6593,
  " Jeff": 6594,
  " mushrooms": 6595,
  " Paws": 6596,
  " paying": 6597,
  " knees": 6598,
  "ences": 6599,
  " hider": 6600,
  " wandering": 6601,
  " Ash": 6602,
  " images": 6603,
  "Charlie": 6604,
  " stung": 6605,
  " Wink": 6606,
  " barely": 6607,
  " magnets": 6608,
  " behaving": 6609,
  " tipto": 6610,
  " marked": 6611,
  "?\",": 6612,
  "brush": 6613,
  "rrr": 6614,
  " restored": 6615,
  " Dee": 6616,
  " leading": 6617,
  " chuck": 6618,
  "lled": 6619,
  " greet": 6620,
  "ados": 6621,
  " nine": 6622,
  "Teddy": 6623,
  " gears": 6624,
  " bravery": 6625,
  " Snuggles": 6626,
  " competition": 6627,
  "ky": 6628,
  " outfit": 6629,
  "eal": 6630,
  "oline": 6631,
  " properly": 6632,
  " wishing": 6633,
  " ventured": 6634,
  " muscle": 6635,
  " dances": 6636,
  " chat": 6637,
  "tle": 6638,
  "aa": 6639,
  " salty": 6640,
  " pens": 6641,
  "amb": 6642,
  " Betsy": 6643,
  " Ziggy": 6644,
  " ranger": 6645,
  " deserve": 6646,
  " however": 6647,
  " matters": 6648,
  "sequ": 6649,
  " darkness": 6650,
  " burst": 6651,
  " Fu": 6652,
  " cobwebs": 6653,
  " rainy": 6654,
  " chefs": 6655,
  " ruining": 6656,
  " blocking": 6657,
  " consequ": 6658,
  " bak": 6659,
  "usted": 6660,
  "itely": 6661,
  " scur": 6662,
  "sty": 6663,
  " vines": 6664,
  " fab": 6665,
  " fabric": 6666,
  "abel": 6667,
  " basement": 6668,
  " entire": 6669,
  " performed": 6670,
  " least": 6671,
  " Buggy": 6672,
  "Sn": 6673,
  " scratches": 6674,
  " heavier": 6675,
  " Claire": 6676,
  " mints": 6677,
  " twirling": 6678,
  " avocados": 6679,
  "However": 6680,
  " Linda": 6681,
  "rink": 6682,
  "fl": 6683,
  " scurried": 6684,
  " losing": 6685,
  " sunflowers": 6686,
  " Jenna": 6687,
  " rainco": 6688,
  " swords": 6689,
  "Tweet": 6690,
  " click": 6691,
  "agic": 6692,
  " Laser": 6693,
  " silent": 6694,
  " jobs": 6695,
  " necklaces": 6696,
  " flames": 6697,
  " Luke": 6698,
  " Grumpy": 6699,
  " relief": 6700,
  " sewed": 6701,
  " rotting": 6702,
  " snat": 6703,
  "len": 6704,
  "Follow": 6705,
  " tricky": 6706,
  "Listen": 6707,
  "Jerry": 6708,
  " lighter": 6709,
  "ophia": 6710,
  " Skip": 6711,
  " bows": 6712,
  " exha": 6713,
  " consequences": 6714,
  " solution": 6715,
  "Alex": 6716,
  " Lena": 6717,
  " tires": 6718,
  " stain": 6719,
  "Beep": 6720,
  " unpacked": 6721,
  "Ab": 6722,
  " partic": 6723,
  " races": 6724,
  "rance": 6725,
  " bumps": 6726,
  " pins": 6727,
  " wraps": 6728,
  "aisies": 6729,
  " decorating": 6730,
  " backed": 6731,
  " wow": 6732,
  "cher": 6733,
  " dentist": 6734,
  " cautiously": 6735,
  " purr": 6736,
  " needles": 6737,
  " lifting": 6738,
  "izzie": 6739,
  " Pr": 6740,
  " accomplish": 6741,
  " triangles": 6742,
  " daisies": 6743,
  " annoy": 6744,
  " hesitated": 6745,
  "ept": 6746,
  " Those": 6747,
  " growls": 6748,
  " crackers": 6749,
  "oke": 6750,
  " stomped": 6751,
  " grabbing": 6752,
  " cott": 6753,
  " figured": 6754,
  " bodies": 6755,
  " mater": 6756,
  " buying": 6757,
  " Tree": 6758,
  " material": 6759,
  " Rolly": 6760,
  " Fido": 6761,
  " Adam": 6762,
  " swans": 6763,
  " ties": 6764,
  " gri": 6765,
  "vers": 6766,
  " grows": 6767,
  " \n ": 6768,
  " sweets": 6769,
  " Goodbye": 6770,
  " flavor": 6771,
  " cheeks": 6772,
  " owners": 6773,
  " Cathy": 6774,
  "Big": 6775,
  " suffering": 6776,
  " El": 6777,
  " Jessie": 6778,
  " fact": 6779,
  "vroom": 6780,
  " groups": 6781,
  " forehead": 6782,
  "bly": 6783,
  " lungs": 6784,
  " repa": 6785,
  "Harry": 6786,
  " bakery": 6787,
  " interested": 6788,
  " Milo": 6789,
  " freed": 6790,
  "Lilly": 6791,
  " Nothing": 6792,
  "itches": 6793,
  " chuckled": 6794,
  "For": 6795,
  " conn": 6796,
  " swept": 6797,
  " exhausted": 6798,
  " thud": 6799,
  "?'": 6800,
  " twinkling": 6801,
  " tapped": 6802,
  "Tw": 6803,
  "Ru": 6804,
  " nect": 6805,
  " nectar": 6806,
  "rosty": 6807,
  "elle": 6808,
  " feast": 6809,
  " darling": 6810,
  "indr": 6811,
  " Mad": 6812,
  " worries": 6813,
  " fuzzy": 6814,
  " tunnels": 6815,
  " uns": 6816,
  " repaired": 6817,
  " Trust": 6818,
  " reason": 6819,
  " Copper": 6820,
  " Ball": 6821,
  " activities": 6822,
  " pecked": 6823,
  " Hannah": 6824,
  "lets": 6825,
  " entrance": 6826,
  " Try": 6827,
  " raindr": 6828,
  " meals": 6829,
  " Listen": 6830,
  " particular": 6831,
  " completely": 6832,
  " mailed": 6833,
  " nests": 6834,
  "ctions": 6835,
  " cuddly": 6836,
  " waiter": 6837,
  " sense": 6838,
  " Nana": 6839,
  " colored": 6840,
  " leap": 6841,
  "arky": 6842,
  " peeking": 6843,
  "step": 6844,
  " plenty": 6845,
  "band": 6846,
  " slammed": 6847,
  " Cara": 6848,
  "no": 6849,
  " players": 6850,
  " month": 6851,
  " budge": 6852,
  " Birthday": 6853,
  " Q": 6854,
  " scra": 6855,
  " forgets": 6856,
  " den": 6857,
  " Oliver": 6858,
  " handful": 6859,
  " mer": 6860,
  "ossible": 6861,
  " genie": 6862,
  " Christ": 6863,
  " stool": 6864,
  "iggie": 6865,
  " talks": 6866,
  " Pup": 6867,
  " Suzie": 6868,
  " passports": 6869,
  " feeding": 6870,
  " films": 6871,
  " baths": 6872,
  " impossible": 6873,
  " determination": 6874,
  " printing": 6875,
  "May": 6876,
  " designed": 6877,
  "boat": 6878,
  " buses": 6879,
  " opp": 6880,
  " suitcase": 6881,
  " bars": 6882,
  "ueen": 6883,
  "lephant": 6884,
  " counts": 6885,
  " stolen": 6886,
  " spikes": 6887,
  " Snap": 6888,
  " spreading": 6889,
  " wiping": 6890,
  " steer": 6891,
  " Rain": 6892,
  " lamb": 6893,
  " honked": 6894,
  "etty": 6895,
  " cowb": 6896,
  "nies": 6897,
  "Whee": 6898,
  " separated": 6899,
  "blings": 6900,
  " siblings": 6901,
  " hops": 6902,
  " chop": 6903,
  " Twinkle": 6904,
  " sewing": 6905,
  " fires": 6906,
  " fever": 6907,
  " twinkle": 6908,
  " ty": 6909,
  " camping": 6910,
  " Mira": 6911,
  " lower": 6912,
  " changing": 6913,
  " behavi": 6914,
  "retch": 6915,
  "yes": 6916,
  " Bloom": 6917,
  " celebration": 6918,
  " liqu": 6919,
  "mas": 6920,
  " squealed": 6921,
  " dollhouse": 6922,
  "but": 6923,
  "Sunny": 6924,
  " backward": 6925,
  " age": 6926,
  " snatched": 6927,
  " cash": 6928,
  " twice": 6929,
  "ho": 6930,
  "lee": 6931,
  " sway": 6932,
  "itched": 6933,
  " celebrating": 6934,
  " Peanut": 6935,
  " shrinking": 6936,
  " ache": 6937,
  "weed": 6938,
  " kings": 6939,
  "rious": 6940,
  " kittens": 6941,
  " shops": 6942,
  " Jessica": 6943,
  " Jacob": 6944,
  "cope": 6945,
  "Rose": 6946,
  " Gina": 6947,
  "aura": 6948,
  " hus": 6949,
  " touches": 6950,
  " pancakes": 6951,
  "airy": 6952,
  " avoid": 6953,
  " spat": 6954,
  " Frosty": 6955,
  "rig": 6956,
  " Nina": 6957,
  "hog": 6958,
  " paths": 6959,
  "ives": 6960,
  "cky": 6961,
  " Hold": 6962,
  " calmed": 6963,
  " rotten": 6964,
  " seaweed": 6965,
  " dropping": 6966,
  " Jon": 6967,
  "Sandy": 6968,
  " Mel": 6969,
  " stroked": 6970,
  " twisting": 6971,
  "iles": 6972,
  "Pipp": 6973,
  " untied": 6974,
  " playhouse": 6975,
  "llen": 6976,
  "ne": 6977,
  "Millie": 6978,
  " puppies": 6979,
  " students": 6980,
  " Sof": 6981,
  "cl": 6982,
  " astron": 6983,
  " screws": 6984,
  " Re": 6985,
  "hi": 6986,
  " somebody": 6987,
  " liquid": 6988,
  "igning": 6989,
  " wakes": 6990,
  " squish": 6991,
  "ammy": 6992,
  " Woof": 6993,
  " astronaut": 6994,
  " bracelets": 6995,
  " thrown": 6996,
  "aren": 6997,
  "immer": 6998,
  " loops": 6999,
  " Other": 7000,
  " wrapping": 7001,
  " plain": 7002,
  "Luckily": 7003,
  " planning": 7004,
  " tramp": 7005,
  " skunk": 7006,
  " aimed": 7007,
  " pennies": 7008,
  " shoo": 7009,
  " lifts": 7010,
  " dancers": 7011,
  " firefly": 7012,
  " sparks": 7013,
  "pen": 7014,
  "Dan": 7015,
  " poster": 7016,
  " Christmas": 7017,
  "endy": 7018,
  " cust": 7019,
  "yan": 7020,
  " objects": 7021,
  " rewarded": 7022,
  " directions": 7023,
  "using": 7024,
  "ingo": 7025,
  " husband": 7026,
  " reflection": 7027,
  "â": 7028,
  "Take": 7029,
  "river": 7030,
  " clues": 7031,
  "uppy": 7032,
  " leads": 7033,
  " increased": 7034,
  " blocked": 7035,
  " rising": 7036,
  " cousin": 7037,
  " Yesterday": 7038,
  " dod": 7039,
  " Without": 7040,
  " forgetting": 7041,
  " custom": 7042,
  "rigued": 7043,
  "Kate": 7044,
  "ude": 7045,
  " trampoline": 7046,
  " beginning": 7047,
  " pouted": 7048,
  " storekeeper": 7049,
  " zebras": 7050,
  " hedgehog": 7051,
  " aff": 7052,
  " Rollie": 7053,
  " â": 7054,
  " borrowed": 7055,
  " snowfl": 7056,
  " countryside": 7057,
  " mesmer": 7058,
  " Jay": 7059,
  "Jump": 7060,
  " vehicles": 7061,
  " instrum": 7062,
  " Kayla": 7063,
  " Mic": 7064,
  " Up": 7065,
  " frowning": 7066,
  "ivity": 7067,
  "Pat": 7068,
  "Under": 7069,
  " marker": 7070,
  " Queen": 7071,
  " presses": 7072,
  " bey": 7073,
  " beyond": 7074,
  " damage": 7075,
  " Only": 7076,
  " fart": 7077,
  "iece": 7078,
  " Biggie": 7079,
  " Tara": 7080,
  "ivery": 7081,
  "jo": 7082,
  " health": 7083,
  " swimsuit": 7084,
  " slips": 7085,
  " whispers": 7086,
  " nibb": 7087,
  " Julia": 7088,
  "armer": 7089,
  " warmer": 7090,
  " flapping": 7091,
  " tiptoed": 7092,
  " regretted": 7093,
  " Robo": 7094,
  " laying": 7095,
  "itted": 7096,
  "Zip": 7097,
  " Fire": 7098,
  "ades": 7099,
  " yelp": 7100,
  " rains": 7101,
  " glued": 7102,
  " everybody": 7103,
  " creations": 7104,
  " hearing": 7105,
  " colder": 7106,
  " swir": 7107,
  "iversity": 7108,
  "ael": 7109,
  " shaped": 7110,
  " Elephant": 7111,
  " streets": 7112,
  " fins": 7113,
  " rusty": 7114,
  " cushions": 7115,
  "Out": 7116,
  " san": 7117,
  " farthest": 7118,
  " Mikey": 7119,
  " creativity": 7120,
  "ans": 7121,
  " sale": 7122,
  "Always": 7123,
  " strongest": 7124,
  "Co": 7125,
  "ibbit": 7126,
  " Sparky": 7127,
  " fits": 7128,
  " bells": 7129,
  " dollars": 7130,
  " Larry": 7131,
  " earn": 7132,
  " lending": 7133,
  " Chirp": 7134,
  "angle": 7135,
  " Moon": 7136,
  "iam": 7137,
  " cashier": 7138,
  "eese": 7139,
  " including": 7140,
  "Milly": 7141,
  " sank": 7142,
  " raincoat": 7143,
  " sniffs": 7144,
  " Rich": 7145,
  " trembled": 7146,
  " stopping": 7147,
  " source": 7148,
  "iti": 7149,
  " Missy": 7150,
  "imon": 7151,
  " wobbly": 7152,
  " indeed": 7153,
  "ters": 7154,
  " guests": 7155,
  " single": 7156,
  " recommended": 7157,
  " wee": 7158,
  " spells": 7159,
  " accomplishment": 7160,
  " belts": 7161,
  " ends": 7162,
  " surprising": 7163,
  " hopeful": 7164,
  " seasons": 7165,
  " Snowman": 7166,
  " Take": 7167,
  " Els": 7168,
  " plans": 7169,
  "Bear": 7170,
  " encourag": 7171,
  "ichael": 7172,
  " supported": 7173,
  " artist": 7174,
  " suffered": 7175,
  "illed": 7176,
  "stick": 7177,
  " performance": 7178,
  " slowed": 7179,
  "eet": 7180,
  "Nina": 7181,
  " gross": 7182,
  " flavors": 7183,
  "ertain": 7184,
  " spins": 7185,
  "iding": 7186,
  "cho": 7187,
  "Quack": 7188,
  " labels": 7189,
  " raindrops": 7190,
  " delivery": 7191,
  "arac": 7192,
  "uing": 7193,
  " forgiving": 7194,
  " raccoon": 7195,
  "obody": 7196,
  " Woo": 7197,
  " pours": 7198,
  "the": 7199,
  " vanilla": 7200,
  " turtles": 7201,
  " stands": 7202,
  "ility": 7203,
  "Bill": 7204,
  "uess": 7205,
  " recipe": 7206,
  " beam": 7207,
  " tying": 7208,
  " Sw": 7209,
  " geese": 7210,
  " robber": 7211,
  " drawn": 7212,
  " willing": 7213,
  " wept": 7214,
  "Vroom": 7215,
  " Bones": 7216,
  " charac": 7217,
  " pops": 7218,
  " corners": 7219,
  " Sophia": 7220,
  " queens": 7221,
  "elia": 7222,
  " grip": 7223,
  " sailboat": 7224,
  " die": 7225,
  " drivers": 7226,
  " moo": 7227,
  "itude": 7228,
  " hallway": 7229,
  " imagining": 7230,
  " seconds": 7231,
  " Fuzzy": 7232,
  " preparing": 7233,
  "Mine": 7234,
  " widened": 7235,
  " adult": 7236,
  " Spirit": 7237,
  " grocer": 7238,
  " coop": 7239,
  " talented": 7240,
  " Beaky": 7241,
  " Pam": 7242,
  " Izzy": 7243,
  "ummies": 7244,
  " sailors": 7245,
  " aside": 7246,
  " softer": 7247,
  "lling": 7248,
  " watering": 7249,
  " sending": 7250,
  " knots": 7251,
  " unsure": 7252,
  " tipped": 7253,
  " horiz": 7254,
  " treehouse": 7255,
  "Lulu": 7256,
  " Lizzie": 7257,
  " notes": 7258,
  " echo": 7259,
  " achieved": 7260,
  "igers": 7261,
  " horizon": 7262,
  " delivering": 7263,
  " squeak": 7264,
  " pleasure": 7265,
  " Stella": 7266,
  " hotter": 7267,
  "Clara": 7268,
  " pupils": 7269,
  " burrow": 7270,
  " angels": 7271,
  " curiously": 7272,
  " blinking": 7273,
  " yum": 7274,
  "Ellie": 7275,
  " June": 7276,
  " symbols": 7277,
  " Stretch": 7278,
  " tweet": 7279,
  " det": 7280,
  " Rudy": 7281,
  " passen": 7282,
  " Cindy": 7283,
  "wk": 7284,
  " tummies": 7285,
  " figures": 7286,
  " pigeons": 7287,
  " tiss": 7288,
  "umbling": 7289,
  "oey": 7290,
  " Robert": 7291,
  " bandages": 7292,
  " Doctor": 7293,
  " coup": 7294,
  " robots": 7295,
  " tossed": 7296,
  "alph": 7297,
  " backwards": 7298,
  " hour": 7299,
  " roars": 7300,
  " merma": 7301,
  "Baby": 7302,
  " rather": 7303,
  "uzz": 7304,
  "atur": 7305,
  "Maria": 7306,
  "cited": 7307,
  " Crab": 7308,
  " Play": 7309,
  "Moo": 7310,
  "Dolly": 7311,
  "ighting": 7312,
  " groceries": 7313,
  " zipping": 7314,
  "Put": 7315,
  " unw": 7316,
  "Very": 7317,
  "prin": 7318,
  " among": 7319,
  " blown": 7320,
  " icing": 7321,
  "!â.": 7322,
  " afterwards": 7323,
  " rumble": 7324,
  " screwd": 7325,
  "ipper": 7326,
  "ushing": 7327,
  " prove": 7328,
  " sped": 7329,
  " glee": 7330,
  " Titi": 7331,
  " Tia": 7332,
  " dip": 7333,
  " overcome": 7334,
  "Ruby": 7335,
  "Quick": 7336,
  " surfboard": 7337,
  " shovels": 7338,
  " slices": 7339,
  " Toot": 7340,
  " merry": 7341,
  " wobble": 7342,
  " mate": 7343,
  " Abbie": 7344,
  " Turt": 7345,
  " disturbing": 7346,
  " heading": 7347,
  " firefighters": 7348,
  " reversed": 7349,
  " swall": 7350,
  " swallowed": 7351,
  "Jul": 7352,
  " chip": 7353,
  " flipped": 7354,
  " scored": 7355,
  "eds": 7356,
  " Jump": 7357,
  " squeezing": 7358,
  "Frank": 7359,
  "usty": 7360,
  "aty": 7361,
  " waking": 7362,
  "Su": 7363,
  " intrigued": 7364,
  "Sad": 7365,
  " maker": 7366,
  "Like": 7367,
  " Barky": 7368,
  "awn": 7369,
  " puff": 7370,
  "Betty": 7371,
  " hawk": 7372,
  " encouraging": 7373,
  " aud": 7374,
  " Ex": 7375,
  "osen": 7376,
  " Ron": 7377,
  " chosen": 7378,
  "onies": 7379,
  "hew": 7380,
  " Farmer": 7381,
  " Ang": 7382,
  " couple": 7383,
  " designs": 7384,
  " screwdriver": 7385,
  " slipping": 7386,
  " squishy": 7387,
  " Emmy": 7388,
  " center": 7389,
  " gardener": 7390,
  " rivers": 7391,
  " respond": 7392,
  " markers": 7393,
  " jars": 7394,
  "iley": 7395,
  " tigers": 7396,
  " frowns": 7397,
  "pecting": 7398,
  " Sadly": 7399,
  " fluttered": 7400,
  " Kit": 7401,
  "bird": 7402,
  " firefighter": 7403,
  " Ryan": 7404,
  " Sl": 7405,
  "Ribbit": 7406,
  " suits": 7407,
  " secure": 7408,
  " sprinkled": 7409,
  " creamy": 7410,
  " ignoring": 7411,
  " sharks": 7412,
  "ashes": 7413,
  " bru": 7414,
  " giggles": 7415,
  " tissue": 7416,
  " tighter": 7417,
  " firmly": 7418,
  "ounce": 7419,
  " Laura": 7420,
  " familiar": 7421,
  " shown": 7422,
  "fly": 7423,
  " thorns": 7424,
  "Spike": 7425,
  " Wo": 7426,
  " drawers": 7427,
  " Zee": 7428,
  "child": 7429,
  " express": 7430,
  "Car": 7431,
  " audience": 7432,
  " crossing": 7433,
  "ments": 7434,
  " def": 7435,
  " daring": 7436,
  " coloured": 7437,
  " performing": 7438,
  " cloudy": 7439,
  " cor": 7440,
  " Nick": 7441,
  " ais": 7442,
  "ae": 7443,
  "rat": 7444,
  " pedaled": 7445,
  " mixture": 7446,
  "Get": 7447,
  " gracefully": 7448,
  " til": 7449,
  "ggy": 7450,
  " haircuts": 7451,
  " yielded": 7452,
  " ponies": 7453,
  " crowns": 7454,
  " disob": 7455,
  " bits": 7456,
  " Sleep": 7457,
  " todd": 7458,
  " nervously": 7459,
  " hangers": 7460,
  " Patch": 7461,
  "bbled": 7462,
  " pays": 7463,
  "Zoomy": 7464,
  " 2": 7465,
  " peck": 7466,
  " stroke": 7467,
  " ev": 7468,
  "fall": 7469,
  "Bang": 7470,
  " respected": 7471,
  " napped": 7472,
  "een": 7473,
  "aven": 7474,
  " minded": 7475,
  "ddie": 7476,
  "Bessie": 7477,
  "ably": 7478,
  " tested": 7479,
  "Boys": 7480,
  "ading": 7481,
  "parent": 7482,
  " Chris": 7483,
  " University": 7484,
  " Near": 7485,
  "Kim": 7486,
  " beeh": 7487,
  " Turtle": 7488,
  " surfing": 7489,
  " neighbours": 7490,
  "arrow": 7491,
  " shady": 7492,
  "vered": 7493,
  " enthusiasm": 7494,
  "arlings": 7495,
  " magician": 7496,
  "iona": 7497,
  " darlings": 7498,
  " wisely": 7499,
  " sails": 7500,
  " stitches": 7501,
  "kend": 7502,
  "Dear": 7503,
  " weekend": 7504,
  " thoughts": 7505,
  "Freddy": 7506,
  " Tweetie": 7507,
  " reminds": 7508,
  " temper": 7509,
  "oring": 7510,
  " spits": 7511,
  " surroundings": 7512,
  " fleas": 7513,
  "tha": 7514,
  "antha": 7515,
  " teams": 7516,
  " lessons": 7517,
  " fills": 7518,
  " Along": 7519,
  " flip": 7520,
  " melons": 7521,
  " paintbrush": 7522,
  " mermaid": 7523,
  "oni": 7524,
  "Katie": 7525,
  " grandchild": 7526,
  " hoops": 7527,
  " elbow": 7528,
  " explo": 7529,
  " sports": 7530,
  " Fighting": 7531,
  " lies": 7532,
  "Guess": 7533,
  " panicked": 7534,
  "rac": 7535,
  " cleaner": 7536,
  " amount": 7537,
  " longest": 7538,
  "cused": 7539,
  " scooters": 7540,
  " lent": 7541,
  "immering": 7542,
  " beloved": 7543,
  "ita": 7544,
  " sill": 7545,
  " beehive": 7546,
  "Pippin": 7547,
  "Alright": 7548,
  "oga": 7549,
  "ongrat": 7550,
  "lle": 7551,
  "ongratul": 7552,
  " grandparent": 7553,
  " oysters": 7554,
  " forgiven": 7555,
  " magazines": 7556,
  " arr": 7557,
  " Wise": 7558,
  " elf": 7559,
  " repeating": 7560,
  " discussed": 7561,
  " Thanks": 7562,
  " sweetest": 7563,
  " Maya": 7564,
  " wadd": 7565,
  "Keep": 7566,
  " Granny": 7567,
  " lace": 7568,
  " reass": 7569,
  " nightmares": 7570,
  " tubes": 7571,
  " Willy": 7572,
  " spoonful": 7573,
  " understands": 7574,
  " bathing": 7575,
  " Zoey": 7576,
  " nood": 7577,
  "asty": 7578,
  "Am": 7579,
  " sweep": 7580,
  " manners": 7581,
  "Uncle": 7582,
  " sprang": 7583,
  " wrink": 7584,
  " Holly": 7585,
  " nur": 7586,
  " bully": 7587,
  "crow": 7588,
  " Yet": 7589,
  " guide": 7590,
  "ancy": 7591,
  "onna": 7592,
  " crew": 7593,
  "romise": 7594,
  " breathed": 7595,
  "Jazz": 7596,
  "steps": 7597,
  "while": 7598,
  "ilda": 7599,
  "ently": 7600,
  " Bally": 7601,
  " bulbs": 7602,
  " grassy": 7603,
  " neare": 7604,
  " wiggly": 7605,
  " testing": 7606,
  " spies": 7607,
  " coug": 7608,
  " sheets": 7609,
  " solving": 7610,
  " Roo": 7611,
  " footsteps": 7612,
  " speeding": 7613,
  "Afterwards": 7614,
  "ntil": 7615,
  " focused": 7616,
  "ounced": 7617,
  "cept": 7618,
  "?!\"": 7619,
  " mesmerized": 7620,
  " camel": 7621,
  " braver": 7622,
  " hesitant": 7623,
  " Sparkle": 7624,
  " licking": 7625,
  " rushing": 7626,
  " Well": 7627,
  " joining": 7628,
  " Puppy": 7629,
  " greeted": 7630,
  " Martha": 7631,
  " polar": 7632,
  " Bubb": 7633,
  "espite": 7634,
  "--": 7635,
  " materials": 7636,
  " Nobody": 7637,
  "Which": 7638,
  " changes": 7639,
  " worn": 7640,
  "Kiki": 7641,
  "undred": 7642,
  " bicycles": 7643,
  " stored": 7644,
  " anger": 7645,
  " mast": 7646,
  "Leave": 7647,
  " peacefully": 7648,
  " ships": 7649,
  " spice": 7650,
  " Show": 7651,
  " terrified": 7652,
  " gonna": 7653,
  " nuzz": 7654,
  " politely": 7655,
  "Snow": 7656,
  " spills": 7657,
  " scarecrow": 7658,
  " knives": 7659,
  " evil": 7660,
  " Mixy": 7661,
  " burying": 7662,
  "ppies": 7663,
  "ca": 7664,
  " healing": 7665,
  " aren": 7666,
  " aeroplanes": 7667,
  " donkey": 7668,
  "freeze": 7669,
  "Even": 7670,
  " scattering": 7671,
  " seals": 7672,
  " miles": 7673,
  " Chewy": 7674,
  "amboo": 7675,
  " dump": 7676,
  " worrying": 7677,
  "Bee": 7678,
  "zoom": 7679,
  "beep": 7680,
  " Lenny": 7681,
  "David": 7682,
  " puzzled": 7683,
  " stacked": 7684,
  " Kip": 7685,
  " Nice": 7686,
  "Penny": 7687,
  " loses": 7688,
  " travelled": 7689,
  " baskets": 7690,
  "dding": 7691,
  " Win": 7692,
  " Okay": 7693,
  " gazing": 7694,
  " blast": 7695,
  "ipes": 7696,
  " Tess": 7697,
  " temperature": 7698,
  "Hurry": 7699,
  " believing": 7700,
  " dripping": 7701,
  " tasting": 7702,
  " clue": 7703,
  " und": 7704,
  " pinching": 7705,
  " 10": 7706,
  " rats": 7707,
  " soaking": 7708,
  "erm": 7709,
  "isc": 7710,
  " sandy": 7711,
  " Isn": 7712,
  "rect": 7713,
  " Simon": 7714,
  "anwhile": 7715,
  "rey": 7716,
  " Abi": 7717,
  " punishment": 7718,
  " banged": 7719,
  "Binky": 7720,
  " crashing": 7721,
  " humans": 7722,
  " Ana": 7723,
  " force": 7724,
  " gest": 7725,
  " hundred": 7726,
  " Lia": 7727,
  " Chess": 7728,
  " swimmer": 7729,
  " snowflakes": 7730,
  " relaxing": 7731,
  " beeped": 7732,
  " resisted": 7733,
  " Fairy": 7734,
  " quarreled": 7735,
  " Wendy": 7736,
  "elie": 7737,
  " ramp": 7738,
  "form": 7739,
  " joins": 7740,
  " backpacks": 7741,
  " Ph": 7742,
  "abby": 7743,
  "years": 7744,
  " delayed": 7745,
  " dressing": 7746,
  " toddler": 7747,
  " Luckily": 7748,
  " covering": 7749,
  " flight": 7750,
  " Te": 7751,
  "Two": 7752,
  " encouragement": 7753,
  " benches": 7754,
  "orter": 7755,
  "Open": 7756,
  "By": 7757,
  " scraped": 7758,
  " toward": 7759,
  " Judy": 7760,
  " purpose": 7761,
  " focus": 7762,
  " correct": 7763,
  "Bow": 7764,
  " lipstick": 7765,
  "'.\"": 7766,
  " bamboo": 7767,
  " months": 7768,
  " twinkled": 7769,
  " permitted": 7770,
  " potion": 7771,
  " Cow": 7772,
  "Spe": 7773,
  " languages": 7774,
  " freedom": 7775,
  " orders": 7776,
  " risks": 7777,
  " poppies": 7778,
  " master": 7779,
  "Tony": 7780,
  " noodles": 7781,
  "shm": 7782,
  " faded": 7783,
  " wounds": 7784,
  "shmallow": 7785,
  "rier": 7786,
  "Kids": 7787,
  " Jojo": 7788,
  "isions": 7789,
  " creams": 7790,
  " birdhouse": 7791,
  " annoyed": 7792,
  " cells": 7793,
  " Herb": 7794,
  " sniffing": 7795,
  " adults": 7796,
  " cheers": 7797,
  "opes": 7798,
  " unwra": 7799,
  "Birdy": 7800,
  "Buzzy": 7801,
  " opinions": 7802,
  " floats": 7803,
  "ecca": 7804,
  " puck": 7805,
  "Instead": 7806,
  "andas": 7807,
  " flown": 7808,
  " sneezes": 7809,
  " handsome": 7810,
  " scen": 7811,
  " nodding": 7812,
  " Mint": 7813,
  " burnt": 7814,
  " smelling": 7815,
  " 5": 7816,
  " drifted": 7817,
  " within": 7818,
  "ider": 7819,
  "bage": 7820,
  " damaged": 7821,
  " bothering": 7822,
  " scient": 7823,
  " height": 7824,
  " instruments": 7825,
  " pleaded": 7826,
  " tearing": 7827,
  " slither": 7828,
  " ease": 7829,
  " Ali": 7830,
  " scientist": 7831,
  " Marie": 7832,
  "da": 7833,
  "Back": 7834,
  "Goodnight": 7835,
  "Mira": 7836,
  " pound": 7837,
  " seller": 7838,
  " handing": 7839,
  " Say": 7840,
  " germ": 7841,
  " files": 7842,
  " wasting": 7843,
  " results": 7844,
  " dreamt": 7845,
  " Mabel": 7846,
  " brushing": 7847,
  " destroying": 7848,
  " explains": 7849,
  "bell": 7850,
  " characters": 7851,
  " Razor": 7852,
  " Cr": 7853,
  "ousy": 7854,
  " hiss": 7855,
  " Ste": 7856,
  " certain": 7857,
  "Carl": 7858,
  " sweaty": 7859,
  "Behind": 7860,
  " Hug": 7861,
  "Pandy": 7862,
  "unched": 7863,
  " Robbie": 7864,
  " business": 7865,
  " talents": 7866,
  " onward": 7867,
  " engines": 7868,
  " bravest": 7869,
  "Try": 7870,
  " sternly": 7871,
  " Janie": 7872,
  " Pen": 7873,
  "ition": 7874,
  "prints": 7875,
  " mosquitoes": 7876,
  " postman": 7877,
  " minds": 7878,
  " scares": 7879,
  " tuck": 7880,
  "under": 7881,
  "cake": 7882,
  " apologised": 7883,
  " stomp": 7884,
  "urious": 7885,
  " manag": 7886,
  "uel": 7887,
  " snuck": 7888,
  " bitten": 7889,
  " tilted": 7890,
  "attered": 7891,
  " reminding": 7892,
  " decisions": 7893,
  " switched": 7894,
  " behavior": 7895,
  " Poor": 7896,
  " desper": 7897,
  " singers": 7898,
  " Judge": 7899,
  "ashing": 7900,
  "bbers": 7901,
  " peeled": 7902,
  " squeaked": 7903,
  "inny": 7904,
  " Everybody": 7905,
  " purrs": 7906,
  " yumm": 7907,
  " Bra": 7908,
  " rustling": 7909,
  " displayed": 7910,
  " Until": 7911,
  " treated": 7912,
  " smashed": 7913,
  " matey": 7914,
  " neatly": 7915,
  " planting": 7916,
  " Bess": 7917,
  " marshmallow": 7918,
  " insp": 7919,
  " grandparents": 7920,
  " yelped": 7921,
  " bellies": 7922,
  " cracks": 7923,
  " sy": 7924,
  " Navy": 7925,
  " shines": 7926,
  " scamp": 7927,
  "aver": 7928,
  " coloring": 7929,
  " failed": 7930,
  " hoo": 7931,
  " Yoga": 7932,
  " zooms": 7933,
  " Make": 7934,
  "line": 7935,
  " breathing": 7936,
  " nasty": 7937,
  "rup": 7938,
  " combed": 7939,
  " despite": 7940,
  " pandas": 7941,
  " address": 7942,
  " waterfall": 7943,
  "ighing": 7944,
  "uffin": 7945,
  "omp": 7946,
  " Angel": 7947,
  " Loop": 7948,
  "cc": 7949,
  " wider": 7950,
  " antic": 7951,
  " robbers": 7952,
  "Tilly": 7953,
  " echoed": 7954,
  "Abigail": 7955,
  " sweaters": 7956,
  " Todd": 7957,
  " doorway": 7958,
  "Play": 7959,
  " edges": 7960,
  "evin": 7961,
  " Shadow": 7962,
  " inj": 7963,
  "Aunt": 7964,
  " disobey": 7965,
  " Blinky": 7966,
  " gap": 7967,
  " Michael": 7968,
  "wise": 7969,
  "Liz": 7970,
  " Flick": 7971,
  " tar": 7972,
  " taped": 7973,
  " magnif": 7974,
  "oscope": 7975,
  "orking": 7976,
  "Wake": 7977,
  " flaps": 7978,
  " scolds": 7979,
  " action": 7980,
  "ulp": 7981,
  "father": 7982,
  " crawls": 7983,
  " Mindy": 7984,
  " Gary": 7985,
  " swap": 7986,
  " backs": 7987,
  " gobbled": 7988,
  "Ros": 7989,
  " Fishy": 7990,
  " warri": 7991,
  " Eddie": 7992,
  " sever": 7993,
  " steth": 7994,
  "Slow": 7995,
  " newspapers": 7996,
  " probably": 7997,
  " shinier": 7998,
  " several": 7999,
  " occ": 8000,
  " Meg": 8001,
  " encount": 8002,
  "Rock": 8003,
  "Lena": 8004,
  " connected": 8005,
  " serving": 8006,
  " quieter": 8007,
  " plucked": 8008,
  " Share": 8009,
  "tock": 8010,
  " ouch": 8011,
  "igger": 8012,
  " gesture": 8013,
  "Ted": 8014,
  "Adam": 8015,
  " student": 8016,
  " doorbell": 8017,
  " plot": 8018,
  "Too": 8019,
  "Fl": 8020,
  " squaw": 8021,
  " cares": 8022,
  " grandson": 8023,
  " rescuing": 8024,
  " Se": 8025,
  "fire": 8026,
  " simply": 8027,
  " rows": 8028,
  " spy": 8029,
  " goo": 8030,
  " whistles": 8031,
  "iel": 8032,
  "mies": 8033,
  " astronauts": 8034,
  "Shrink": 8035,
  " snaps": 8036,
  " shorter": 8037,
  "vant": 8038,
  "Magic": 8039,
  " cottage": 8040,
  " unpacking": 8041,
  "ssss": 8042,
  " Time": 8043,
  " accidents": 8044,
  " swo": 8045,
  " swollen": 8046,
  "ibi": 8047,
  " Nut": 8048,
  " mood": 8049,
  "Steve": 8050,
  " Zippy": 8051,
  "abelle": 8052,
  " Mousy": 8053,
  " bothered": 8054,
  "anie": 8055,
  "Zara": 8056,
  " stethoscope": 8057,
  "Hannah": 8058,
  "found": 8059,
  " trusting": 8060,
  " causing": 8061,
  "Mad": 8062,
  "Mat": 8063,
  " leapt": 8064,
  " dresser": 8065,
  "aint": 8066,
  " sou": 8067,
  " proper": 8068,
  " pills": 8069,
  " throughout": 8070,
  "retty": 8071,
  " prayers": 8072,
  " runner": 8073,
  " Dina": 8074,
  "Olive": 8075,
  " joyful": 8076,
  "Thomas": 8077,
  " Prince": 8078,
  " locks": 8079,
  "mates": 8080,
  " goats": 8081,
  "Jamie": 8082,
  " target": 8083,
  "what": 8084,
  " Karen": 8085,
  " Wait": 8086,
  "rest": 8087,
  " dears": 8088,
  " Bang": 8089,
  " waddled": 8090,
  "artled": 8091,
  " Cro": 8092,
  " flips": 8093,
  " munch": 8094,
  "Red": 8095,
  " lowered": 8096,
  " stepping": 8097,
  " Jackie": 8098,
  " cons": 8099,
  " teachers": 8100,
  " cowboy": 8101,
  " Toys": 8102,
  " envelopes": 8103,
  " inches": 8104,
  " Vroom": 8105,
  "ears": 8106,
  " char": 8107,
  " anticip": 8108,
  " explorer": 8109,
  " Ready": 8110,
  " Ralph": 8111,
  " Ruff": 8112,
  " playd": 8113,
  "Finn": 8114,
  "unity": 8115,
  "Nice": 8116,
  " Bad": 8117,
  "ening": 8118,
  " efforts": 8119,
  " knocking": 8120,
  " floors": 8121,
  " Pl": 8122,
  " uniforms": 8123,
  " Tri": 8124,
  "lied": 8125,
  " aware": 8126,
  " footprints": 8127,
  "Someone": 8128,
  " nearly": 8129,
  " Fiona": 8130,
  " disc": 8131,
  " Ria": 8132,
  "llas": 8133,
  " appreciation": 8134,
  "ivi": 8135,
  " glitt": 8136,
  " trot": 8137,
  " whimp": 8138,
  " sens": 8139,
  " collap": 8140,
  " checks": 8141,
  " necks": 8142,
  "oosh": 8143,
  " except": 8144,
  " lapt": 8145,
  " Jacky": 8146,
  " charge": 8147,
  " plug": 8148,
  " fluttering": 8149,
  " umbrellas": 8150,
  " stamped": 8151,
  " Davey": 8152,
  " sandcastles": 8153,
  "acy": 8154,
  " statues": 8155,
  " Honey": 8156,
  "iscuit": 8157,
  " Amelia": 8158,
  " shrank": 8159,
  "ails": 8160,
  "omb": 8161,
  "Hoppy": 8162,
  " adds": 8163,
  " prick": 8164,
  " finishing": 8165,
  "rily": 8166,
  "rons": 8167,
  " dodged": 8168,
  " stroll": 8169,
  " hunters": 8170,
  " chocolates": 8171,
  " germs": 8172,
  " passengers": 8173,
  "oger": 8174,
  " aisle": 8175,
  " aprons": 8176,
  " wrigg": 8177,
  " sets": 8178,
  ".'\"": 8179,
  " Gerry": 8180,
  " novels": 8181,
  " weeds": 8182,
  " demanding": 8183,
  "order": 8184,
  " Taking": 8185,
  " meows": 8186,
  " scratching": 8187,
  " nurses": 8188,
  "issa": 8189,
  "Dr": 8190,
  " discussing": 8191,
  " minding": 8192,
  "Lucky": 8193,
  " driveway": 8194,
  " Cari": 8195,
  "urrender": 8196,
  " killed": 8197,
  " becomes": 8198,
  " laptop": 8199,
  " Eliz": 8200,
  " toolbox": 8201,
  " haird": 8202,
  " Sadie": 8203,
  " attack": 8204,
  " posit": 8205,
  " Despite": 8206,
  "Speedy": 8207,
  " scampered": 8208,
  " bounces": 8209,
  "sol": 8210,
  " supplied": 8211,
  " sprays": 8212,
  " Gl": 8213,
  " deed": 8214,
  " tempt": 8215,
  " suggestion": 8216,
  " friendships": 8217,
  " burns": 8218,
  "Coco": 8219,
  " closing": 8220,
  " slapping": 8221,
  " anticipation": 8222,
  " invites": 8223,
  " belongings": 8224,
  "Arrr": 8225,
  " cotton": 8226,
  " erase": 8227,
  " springing": 8228,
  " Stan": 8229,
  " form": 8230,
  " twists": 8231,
  " rays": 8232,
  " snuggle": 8233,
  " forgives": 8234,
  " models": 8235,
  " massages": 8236,
  " humming": 8237,
  " shall": 8238,
  " responded": 8239,
  " newfound": 8240,
  "onnie": 8241,
  " ghosts": 8242,
  " expecting": 8243,
  " Shelly": 8244,
  " cheated": 8245,
  " Wooly": 8246,
  "Does": 8247,
  "Gigi": 8248,
  " traveling": 8249,
  " Ne": 8250,
  "otte": 8251,
  " battle": 8252,
  " cond": 8253,
  " although": 8254,
  "alloween": 8255,
  " mommies": 8256,
  " invitations": 8257,
  " carries": 8258,
  " aim": 8259,
  " refreshing": 8260,
  " presented": 8261,
  " conc": 8262,
  " twenty": 8263,
  " Bumpy": 8264,
  " rowed": 8265,
  "hel": 8266,
  " squir": 8267,
  "ots": 8268,
  " cooper": 8269,
  "arlotte": 8270,
  " foxes": 8271,
  "rie": 8272,
  " duckling": 8273,
  " final": 8274,
  " cafe": 8275,
  " Bibi": 8276,
  " marshmallows": 8277,
  "Pip": 8278,
  " Zipper": 8279,
  " clicked": 8280,
  " jets": 8281,
  " designing": 8282,
  " beaver": 8283,
  "oor": 8284,
  " Muffin": 8285,
  " Halloween": 8286,
  "five": 8287,
  " Whoever": 8288,
  " mugs": 8289,
  " Although": 8290,
  " drown": 8291,
  " Excited": 8292,
  " oppos": 8293,
  " picnics": 8294,
  " convin": 8295,
  " tricycle": 8296,
  " Ruth": 8297,
  " Cle": 8298,
  "iens": 8299,
  " Maddie": 8300,
  " scoops": 8301,
  " Pop": 8302,
  " congratul": 8303,
  "po": 8304,
  "Sadly": 8305,
  " â": 8306,
  " travels": 8307,
  " aliens": 8308,
  " Speed": 8309,
  " questioned": 8310,
  " tests": 8311,
  " strips": 8312,
  " craft": 8313,
  "inted": 8314,
  "Near": 8315,
  "atty": 8316,
  "Mouse": 8317,
  " Flutter": 8318,
  "covered": 8319,
  " defe": 8320,
  " Bubba": 8321,
  "iri": 8322,
  " fights": 8323,
  "Br": 8324,
  " opposite": 8325,
  " Biggy": 8326,
  "roken": 8327,
  "Ball": 8328,
  "Chloe": 8329,
  " Im": 8330,
  "Hmm": 8331,
  "Find": 8332,
  "Elly": 8333,
  " encountered": 8334,
  " afford": 8335,
  " grandfather": 8336,
  " Never": 8337,
  " rout": 8338,
  " decl": 8339,
  "inch": 8340,
  " raising": 8341,
  " Vivi": 8342,
  " upside": 8343,
  "iment": 8344,
  "Meanwhile": 8345,
  " calmly": 8346,
  " Rita": 8347,
  " flashed": 8348,
  "Jess": 8349,
  " sincere": 8350,
  " yawning": 8351,
  " realizes": 8352,
  "aturday": 8353,
  "Trust": 8354,
  "Choo": 8355,
  " crystals": 8356,
  " Samantha": 8357,
  " buddy": 8358,
  " buckled": 8359,
  " cupcakes": 8360,
  " defin": 8361,
  " winners": 8362,
  "byes": 8363,
  "Both": 8364,
  "verse": 8365,
  "ris": 8366,
  " weapons": 8367,
  " caw": 8368,
  "',": 8369,
  " packages": 8370,
  "Josh": 8371,
  "shadow": 8372,
  " cheat": 8373,
  " Saturday": 8374,
  " messes": 8375,
  " attem": 8376,
  " coach": 8377,
  " goodbyes": 8378,
  " sacks": 8379,
  " Flo": 8380,
  " Truck": 8381,
  " convers": 8382,
  "quet": 8383,
  " caps": 8384,
  " drift": 8385,
  " Eva": 8386,
  " Mina": 8387,
  "val": 8388,
  "emies": 8389,
  " enemies": 8390,
  " yummiest": 8391,
  " scrub": 8392,
  "asha": 8393,
  " returning": 8394,
  " swallow": 8395,
  " Softy": 8396,
  " Megan": 8397,
  " admiration": 8398,
  "rian": 8399,
  " Louise": 8400,
  " sprout": 8401,
  "Since": 8402,
  " Playing": 8403,
  " Another": 8404,
  " unable": 8405,
  " Yawn": 8406,
  " freezing": 8407,
  "ugging": 8408,
  " brightest": 8409,
  "ooks": 8410,
  " sadder": 8411,
  " bless": 8412,
  " respon": 8413,
  " Man": 8414,
  " response": 8415,
  " Oh": 8416,
  " cosy": 8417,
  "reverse": 8418,
  " diamonds": 8419,
  " bride": 8420,
  " opport": 8421,
  " honking": 8422,
  " garbage": 8423,
  " reapp": 8424,
  "stalk": 8425,
  " whispering": 8426,
  " prevented": 8427,
  " stretches": 8428,
  " awful": 8429,
  " Gray": 8430,
  "antastic": 8431,
  " whoever": 8432,
  " odd": 8433,
  "erk": 8434,
  " awoke": 8435,
  " weighs": 8436,
  " journeys": 8437,
  "alth": 8438,
  " spices": 8439,
  " traps": 8440,
  " dragonfly": 8441,
  "Brrr": 8442,
  " born": 8443,
  "off": 8444,
  " reassured": 8445,
  " clip": 8446,
  " argum": 8447,
  "ivia": 8448,
  " beanstalk": 8449,
  " stall": 8450,
  " definitely": 8451,
  " automobiles": 8452,
  " beetles": 8453,
  " examining": 8454,
  " Maisy": 8455,
  " playdate": 8456,
  " stuffing": 8457,
  " visitors": 8458,
  "ici": 8459,
  "mine": 8460,
  "Hop": 8461,
  " washes": 8462,
  "cie": 8463,
  "broken": 8464,
  " customer": 8465,
  " wiser": 8466,
  " Sofia": 8467,
  " travelling": 8468,
  " Flop": 8469,
  "uper": 8470,
  " Jolly": 8471,
  "emma": 8472,
  "Rachel": 8473,
  " hairdress": 8474,
  " Nurse": 8475,
  "ouquet": 8476,
  " bouquet": 8477,
  " campfire": 8478,
  " decoration": 8479,
  "bble": 8480,
  " Elle": 8481,
  "orse": 8482,
  " tumbled": 8483,
  ",'": 8484,
  " honesty": 8485,
  " bud": 8486,
  "ebecca": 8487,
  "Only": 8488,
  " bomb": 8489,
  "vy": 8490,
  " offering": 8491,
  " welcoming": 8492,
  " occas": 8493,
  " increasing": 8494,
  " troubles": 8495,
  " Ot": 8496,
  " Jax": 8497,
  " wealth": 8498,
  " Hello": 8499,
  " inspired": 8500,
  " loudest": 8501,
  " type": 8502,
  " groan": 8503,
  " Chick": 8504,
  " parted": 8505,
  " Nutty": 8506,
  " Ricky": 8507,
  " Thunder": 8508,
  " whales": 8509,
  "irac": 8510,
  "yl": 8511,
  " declared": 8512,
  " correctly": 8513,
  " Quacky": 8514,
  " beaks": 8515,
  "ooky": 8516,
  "yler": 8517,
  "fus": 8518,
  "athan": 8519,
  " cleared": 8520,
  " cowboys": 8521,
  " nuzzled": 8522,
  " Dotty": 8523,
  " prizes": 8524,
  " exch": 8525,
  " Missile": 8526,
  "Finny": 8527,
  " warmly": 8528,
  " customers": 8529,
  " obeyed": 8530,
  " rewards": 8531,
  " sirens": 8532,
  "Should": 8533,
  " comforting": 8534,
  " Fel": 8535,
  " connect": 8536,
  " Flappy": 8537,
  "shaped": 8538,
  " towns": 8539,
  " Magic": 8540,
  " Bingo": 8541,
  "match": 8542,
  "elieve": 8543,
  " Vicky": 8544,
  " rely": 8545,
  " insisting": 8546,
  " bends": 8547,
  " owns": 8548,
  " trigger": 8549,
  " Fe": 8550,
  " fantastic": 8551,
  "Honey": 8552,
  " hairdresser": 8553,
  " spoiling": 8554,
  " surrendered": 8555,
  " supporting": 8556,
  " cleans": 8557,
  " shares": 8558,
  " poses": 8559,
  " pipes": 8560,
  " wrinkled": 8561,
  "Julie": 8562,
  "Outside": 8563,
  "rench": 8564,
  " Cook": 8565,
  "Sun": 8566,
  " chopped": 8567,
  " beaming": 8568,
  " recorder": 8569,
  " moons": 8570,
  " Wolf": 8571,
  " snowy": 8572,
  " thanking": 8573,
  "ellow": 8574,
  "unes": 8575,
  "Beth": 8576,
  " experien": 8577,
  " active": 8578,
  " enjoyable": 8579,
  " scurry": 8580,
  " Piggy": 8581,
  " coral": 8582,
  " environ": 8583,
  " dollar": 8584,
  " Kevin": 8585,
  " loc": 8586,
  "elope": 8587,
  "worm": 8588,
  " streamers": 8589,
  " Bub": 8590,
  "Je": 8591,
  "udged": 8592,
  " Patty": 8593,
  " Mother": 8594,
  " Zack": 8595,
  "Suzy": 8596,
  " examp": 8597,
  "inger": 8598,
  " environment": 8599,
  " shooed": 8600,
  " shorts": 8601,
  "Tree": 8602,
  " ill": 8603,
  " bruises": 8604,
  " scent": 8605,
  " grat": 8606,
  "uster": 8607,
  " Luc": 8608,
  " hisses": 8609,
  "Bo": 8610,
  " Elsa": 8611,
  " steering": 8612,
  " self": 8613,
  " plugged": 8614,
  " warrior": 8615,
  " exercises": 8616,
  " visits": 8617,
  " cuddles": 8618,
  "screen": 8619,
  " Rel": 8620,
  " dangers": 8621,
  "aptain": 8622,
  " Ar": 8623,
  " Min": 8624,
  "irl": 8625,
  " squished": 8626,
  " unfortunately": 8627,
  " signing": 8628,
  " Light": 8629,
  " pilots": 8630,
  " disappoint": 8631,
  "bee": 8632,
  "Ray": 8633,
  " gratitude": 8634,
  " applauding": 8635,
  "munk": 8636,
  " providing": 8637,
  " Moppy": 8638,
  " tickles": 8639,
  " Rub": 8640,
  "alf": 8641,
  " ting": 8642,
  " convinced": 8643,
  " Elsie": 8644,
  " storms": 8645,
  " jud": 8646,
  " nights": 8647,
  " badger": 8648,
  "Grow": 8649,
  " choosing": 8650,
  " responsib": 8651,
  " Kelly": 8652,
  " youn": 8653,
  " youngest": 8654,
  " nearest": 8655,
  " activity": 8656,
  " brains": 8657,
  "Joy": 8658,
  " coughed": 8659,
  " arranged": 8660,
  " exploded": 8661,
  "Abby": 8662,
  " rewarding": 8663,
  " Fly": 8664,
  " Tre": 8665,
  "Claire": 8666,
  " Floppy": 8667,
  "erpiece": 8668,
  " peep": 8669,
  " sunscreen": 8670,
  " bond": 8671,
  "pr": 8672,
  "good": 8673,
  " Tweety": 8674,
  " Joan": 8675,
  " Katy": 8676,
  "asers": 8677,
  " Sweet": 8678,
  "Mon": 8679,
  " Sal": 8680,
  " annoying": 8681,
  "ilities": 8682,
  " soapy": 8683,
  "sn": 8684,
  "meow": 8685,
  "Splash": 8686,
  " laces": 8687,
  " rails": 8688,
  " appreciated": 8689,
  " threads": 8690,
  " Pine": 8691,
  " offic": 8692,
  " tapping": 8693,
  " Phil": 8694,
  " congratulated": 8695,
  " emerged": 8696,
  " heartbroken": 8697,
  "boards": 8698,
  " Pick": 8699,
  " weighing": 8700,
  " Sil": 8701,
  " tin": 8702,
  "Danger": 8703,
  " crocodiles": 8704,
  " clerk": 8705,
  " attempt": 8706,
  " scram": 8707,
  " Nancy": 8708,
  " example": 8709,
  "Ahoy": 8710,
  " messed": 8711,
  " Kay": 8712,
  " snug": 8713,
  " Any": 8714,
  " dial": 8715,
  "water": 8716,
  " Jonny": 8717,
  " hooks": 8718,
  "Momma": 8719,
  " chipmunk": 8720,
  " tops": 8721,
  " guarding": 8722,
  " bathed": 8723,
  " soot": 8724,
  " manager": 8725,
  " Tippy": 8726,
  " Microscope": 8727,
  "ortunately": 8728,
  "Friends": 8729,
  " De": 8730,
  "Snowy": 8731,
  " masterpiece": 8732,
  " Baa": 8733,
  "etah": 8734,
  " erasers": 8735,
  " common": 8736,
  " tips": 8737,
  " finishes": 8738,
  " Tomorrow": 8739,
  " fet": 8740,
  " trotted": 8741,
  " nibbled": 8742,
  "mbers": 8743,
  " digs": 8744,
  " members": 8745,
  "People": 8746,
  " cheetah": 8747,
  " kinder": 8748,
  " particularly": 8749,
  " chews": 8750,
  " blond": 8751,
  " rips": 8752,
  " beast": 8753,
  "ircle": 8754,
  " argument": 8755,
  "Lizzy": 8756,
  " Helping": 8757,
  " faith": 8758,
  "ative": 8759,
  " earned": 8760,
  " forgiveness": 8761,
  "Anne": 8762,
  " observing": 8763,
  " Joke": 8764,
  " Cici": 8765,
  " experienced": 8766,
  "chievous": 8767,
  " instantly": 8768,
  " curl": 8769,
  " fishes": 8770,
  " cheaper": 8771,
  " Jumpy": 8772,
  "Rosie": 8773,
  " Twist": 8774,
  " mischievous": 8775,
  " generosity": 8776,
  " cages": 8777,
  " meowing": 8778,
  " foam": 8779,
  "Gr": 8780,
  "Baa": 8781,
  " grandd": 8782,
  " stores": 8783,
  " Ag": 8784,
  "mered": 8785,
  "Cindy": 8786,
  "etchup": 8787,
  " mattered": 8788,
  " teles": 8789,
  " passes": 8790,
  " limp": 8791,
  " sleeps": 8792,
  "Sque": 8793,
  "iolet": 8794,
  " breaths": 8795,
  " gasps": 8796,
  " Freddie": 8797,
  "ordinary": 8798,
  " trans": 8799,
  "ending": 8800,
  " rin": 8801,
  "ettle": 8802,
  " hatch": 8803,
  " Momma": 8804,
  " rumbling": 8805,
  "Got": 8806,
  " accomplished": 8807,
  " Hopper": 8808,
  " grassho": 8809,
  "abra": 8810,
  "over": 8811,
  " telescope": 8812,
  " smartest": 8813,
  " mats": 8814,
  "acing": 8815,
  " strum": 8816,
  " thump": 8817,
  " moat": 8818,
  " whined": 8819,
  " scrambled": 8820,
  " farmers": 8821,
  " jugg": 8822,
  " Ice": 8823,
  "Gina": 8824,
  " drip": 8825,
  " collapsed": 8826,
  " syrup": 8827,
  "Robbie": 8828,
  " angrily": 8829,
  " gardens": 8830,
  " More": 8831,
  " experiences": 8832,
  " styles": 8833,
  " discoveries": 8834,
  " vegg": 8835,
  " forests": 8836,
  "idey": 8837,
  "ouraged": 8838,
  "hole": 8839,
  " medals": 8840,
  " tor": 8841,
  " types": 8842,
  " otters": 8843,
  " Does": 8844,
  " conqu": 8845,
  " meaning": 8846,
  " faint": 8847,
  "acock": 8848,
  " hardest": 8849,
  " snapping": 8850,
  "adabra": 8851,
  " fif": 8852,
  "pit": 8853,
  " expression": 8854,
  " movements": 8855,
  "ering": 8856,
  " affect": 8857,
  " surv": 8858,
  " bubbly": 8859,
  " chilly": 8860,
  " unfair": 8861,
  " vests": 8862,
  " court": 8863,
  "Pinky": 8864,
  " scores": 8865,
  " extraordinary": 8866,
  " toothbrush": 8867,
  "Whenever": 8868,
  " attitude": 8869,
  "Never": 8870,
  " Monkey": 8871,
  " vibr": 8872,
  " horri": 8873,
  " bluebird": 8874,
  " spears": 8875,
  " ketchup": 8876,
  "lls": 8877,
  "mel": 8878,
  "Mo": 8879,
  " Berry": 8880,
  " grasshopper": 8881,
  " behaviour": 8882,
  " sooner": 8883,
  "Mother": 8884,
  "lo": 8885,
  " patches": 8886,
  " habit": 8887,
  " Ashley": 8888,
  " pokes": 8889,
  " afar": 8890,
  " momma": 8891,
  "erts": 8892,
  "yd": 8893,
  "Karen": 8894,
  " thicker": 8895,
  "ieves": 8896,
  " Friend": 8897,
  " scri": 8898,
  "Jacob": 8899,
  " slithered": 8900,
  " squeezes": 8901,
  " classmates": 8902,
  " shrunk": 8903,
  " Fle": 8904,
  " Terry": 8905,
  "Jon": 8906,
  " icky": 8907,
  " prickly": 8908,
  " glittering": 8909,
  " expert": 8910,
  " announced": 8911,
  " kneeling": 8912,
  " Riri": 8913,
  " Super": 8914,
  " topp": 8915,
  " marking": 8916,
  " peacock": 8917,
  "elling": 8918,
  " costs": 8919,
  "ctric": 8920,
  " Cally": 8921,
  " Achoo": 8922,
  " zigzags": 8923,
  " watermel": 8924,
  " thieves": 8925,
  " acts": 8926,
  " Zog": 8927,
  " skirts": 8928,
  " jumper": 8929,
  " App": 8930,
  " hood": 8931,
  " Swim": 8932,
  " Cloud": 8933,
  " wolves": 8934,
  " thumbs": 8935,
  " squeaky": 8936,
  " concer": 8937,
  " cocoon": 8938,
  "Papa": 8939,
  " Eliza": 8940,
  " Becky": 8941,
  " woodcut": 8942,
  " boards": 8943,
  " servant": 8944,
  "affle": 8945,
  " cheating": 8946,
  " Jason": 8947,
  "idence": 8948,
  " trading": 8949,
  " raking": 8950,
  "bu": 8951,
  " explaining": 8952,
  " Eric": 8953,
  "cat": 8954,
  "Jessie": 8955,
  " tidied": 8956,
  "rick": 8957,
  " biscuit": 8958,
  " luckily": 8959,
  " lunchtime": 8960,
  " Ac": 8961,
  "Frog": 8962,
  " Puffy": 8963,
  "anced": 8964,
  " spilling": 8965,
  " Day": 8966,
  " transform": 8967,
  " Maddy": 8968,
  " Animal": 8969,
  " Daniel": 8970,
  " desserts": 8971,
  " Use": 8972,
  "Fire": 8973,
  " Pig": 8974,
  "â¦": 8975,
  " Mine": 8976,
  "ror": 8977,
  " Still": 8978,
  " Gill": 8979,
  " messages": 8980,
  " Captain": 8981,
  "amma": 8982,
  " mirac": 8983,
  "rough": 8984,
  " windowsill": 8985,
  " Gilly": 8986,
  " chill": 8987,
  " Lung": 8988,
  " beating": 8989,
  "idy": 8990,
  " Tammy": 8991,
  " seeking": 8992,
  "oot": 8993,
  " Rainbow": 8994,
  " Lina": 8995,
  " actor": 8996,
  " William": 8997,
  " Math": 8998,
  "sess": 8999,
  "its": 9000,
  "pril": 9001,
  " foreshadow": 9002,
  "Any": 9003,
  "Bluey": 9004,
  " leans": 9005,
  " Step": 9006,
  "acles": 9007,
  " Pinch": 9008,
  " Hi": 9009,
  "war": 9010,
  " watermelon": 9011,
  "racadabra": 9012,
  " Monster": 9013,
  " Frankie": 9014,
  " cloths": 9015,
  " dev": 9016,
  " flashing": 9017,
  " hissing": 9018,
  " Tiger": 9019,
  "Freeze": 9020,
  "Bounce": 9021,
  " positive": 9022,
  " discouraged": 9023,
  " winding": 9024,
  " Wil": 9025,
  " funn": 9026,
  " woodcutter": 9027,
  " compete": 9028,
  " dripped": 9029,
  " forts": 9030,
  "pop": 9031,
  " disagreeing": 9032,
  " pressing": 9033,
  " teapot": 9034,
  " glimmering": 9035,
  "icking": 9036,
  " veggies": 9037,
  " kangaroos": 9038,
  " trusts": 9039,
  " tidying": 9040,
  " Peep": 9041,
  " Flora": 9042,
  " tempted": 9043,
  " landing": 9044,
  " dock": 9045,
  " overw": 9046,
  " shallow": 9047,
  " formed": 9048,
  " Tooth": 9049,
  " rack": 9050,
  " fade": 9051,
  "lers": 9052,
  " cops": 9053,
  " electric": 9054,
  " worst": 9055,
  "flowers": 9056,
  "Nothing": 9057,
  " apology": 9058,
  "eling": 9059,
  " Silver": 9060,
  " sleds": 9061,
  "creams": 9062,
  " Life": 9063,
  "iving": 9064,
  "ai": 9065,
  " comets": 9066,
  "upid": 9067,
  " ass": 9068,
  "Owl": 9069,
  " Shark": 9070,
  " Jelly": 9071,
  " Mag": 9072,
  " sav": 9073,
  " officers": 9074,
  " conversation": 9075,
  " situations": 9076,
  " papa": 9077,
  "Bug": 9078,
  " 4": 9079,
  " Charlotte": 9080,
  " Roger": 9081,
  "Rain": 9082,
  " suns": 9083,
  "storm": 9084,
  "aye": 9085,
  " ding": 9086,
  " overwhel": 9087,
  " scurrying": 9088,
  " structures": 9089,
  " miller": 9090,
  " zips": 9091,
  " pizzas": 9092,
  "â,": 9093,
  " Butter": 9094,
  " granddaughter": 9095,
  " Olivia": 9096,
  " Amber": 9097,
  " Hurry": 9098,
  " foggy": 9099,
  " Janey": 9100,
  "Zoe": 9101,
  " deserved": 9102,
  " webs": 9103,
  " opportunity": 9104,
  " Mixie": 9105,
  " cubs": 9106,
  " Yummy": 9107,
  " Spidey": 9108,
  " Buster": 9109,
  " Sasha": 9110,
  "Rabbit": 9111,
  " differences": 9112,
  " rhino": 9113,
  " Gold": 9114,
  " snorted": 9115,
  " quacking": 9116,
  " Tell": 9117,
  " Birds": 9118,
  "ifully": 9119,
  "ended": 9120,
  " heaven": 9121,
  "Fifi": 9122,
  " inchworm": 9123,
  " unlo": 9124,
  " levers": 9125,
  " approach": 9126,
  " inter": 9127,
  " Tyler": 9128,
  " Felix": 9129,
  " cooperate": 9130,
  " seagulls": 9131,
  " Rufus": 9132,
  " pos": 9133,
  " possess": 9134,
  " Boom": 9135,
  "ragon": 9136,
  "welcome": 9137,
  "?â.": 9138,
  "sers": 9139,
  "of": 9140,
  " disappointment": 9141,
  " Smoke": 9142,
  "andra": 9143,
  " pose": 9144,
  " sneaks": 9145,
  " binoc": 9146,
  " speaks": 9147,
  " binocular": 9148,
  "snap": 9149,
  " artwork": 9150,
  " surfed": 9151,
  " Snake": 9152,
  " answering": 9153,
  " scowl": 9154,
  " shortcut": 9155,
  " Grand": 9156,
  " robin": 9157,
  " dep": 9158,
  " sipped": 9159,
  "Climb": 9160,
  " arrest": 9161,
  " Inky": 9162,
  " unwrapped": 9163,
  " Amanda": 9164,
  " ribbit": 9165,
  " amused": 9166,
  "ssy": 9167,
  " reun": 9168,
  " applause": 9169,
  " repeats": 9170,
  " pepperoni": 9171,
  "ugar": 9172,
  " checkout": 9173,
  " keyhole": 9174,
  " Cars": 9175,
  " Mae": 9176,
  " puppets": 9177,
  " paddling": 9178,
  " striking": 9179,
  " visitor": 9180,
  "Lia": 9181,
  "Deal": 9182,
  " croaked": 9183,
  " attacked": 9184,
  " Circle": 9185,
  " unz": 9186,
  " Brian": 9187,
  "Eat": 9188,
  " Otto": 9189,
  "orsie": 9190,
  " Gus": 9191,
  " spooky": 9192,
  " groaned": 9193,
  " Jean": 9194,
  " beautifully": 9195,
  "Each": 9196,
  " consider": 9197,
  " swimsuits": 9198,
  " checking": 9199,
  "cidents": 9200,
  "gar": 9201,
  " Yellow": 9202,
  "uses": 9203,
  " Slinky": 9204,
  " Squeak": 9205,
  " waters": 9206,
  " groom": 9207,
  "jest": 9208,
  " invent": 9209,
  "yle": 9210,
  " exams": 9211,
  " nets": 9212,
  "Luke": 9213,
  " drying": 9214,
  " Rebecca": 9215,
  "ets": 9216,
  "otion": 9217,
  " shrugs": 9218,
  " Auntie": 9219,
  "artin": 9220,
  "agine": 9221,
  " lump": 9222,
  "udy": 9223,
  " honks": 9224,
  " heels": 9225,
  " shoots": 9226,
  " cheerfully": 9227,
  " shyly": 9228,
  " sobbing": 9229,
  "lest": 9230,
  " Since": 9231,
  "sie": 9232,
  " chin": 9233,
  " shh": 9234,
  "esses": 9235,
  "ili": 9236,
  "hny": 9237,
  " whimpered": 9238,
  " healthier": 9239,
  " hangs": 9240,
  "anish": 9241,
  "icious": 9242,
  " Mus": 9243,
  "Milo": 9244,
  " caterpillars": 9245,
  "Slowly": 9246,
  " magnifying": 9247,
  "izzes": 9248,
  " Ratty": 9249,
  " squinted": 9250,
  " fries": 9251,
  " fascinating": 9252,
  " blamed": 9253,
  " Find": 9254,
  "ulpture": 9255,
  " frustration": 9256,
  " sculpture": 9257,
  "ching": 9258,
  " Tip": 9259,
  " Penelope": 9260,
  " shimmering": 9261,
  "ouched": 9262,
  " Peace": 9263,
  " poss": 9264,
  "Sharing": 9265,
  " pleas": 9266,
  " numbered": 9267,
  "edic": 9268,
  " suck": 9269,
  " nibble": 9270,
  " Waffle": 9271,
  " baa": 9272,
  " flowing": 9273,
  "othy": 9274,
  "ellie": 9275,
  "amil": 9276,
  "ibbles": 9277,
  "Pepper": 9278,
  " raked": 9279,
  " Off": 9280,
  " grumbled": 9281,
  "hings": 9282,
  "Bubbles": 9283,
  " builder": 9284,
  "that": 9285,
  "racted": 9286,
  " Woolly": 9287,
  " swaying": 9288,
  " petting": 9289,
  " guards": 9290,
  " facing": 9291,
  "eat": 9292,
  " details": 9293,
  " sprinkle": 9294,
  " mysteries": 9295,
  " Har": 9296,
  " Boat": 9297,
  " enemy": 9298,
  " snort": 9299,
  " flock": 9300,
  "sey": 9301,
  " textures": 9302,
  " tablet": 9303,
  " Curious": 9304,
  " goodies": 9305,
  " Barry": 9306,
  " popping": 9307,
  " wig": 9308,
  "Yesterday": 9309,
  " stacks": 9310,
  " wildflowers": 9311,
  " Jenn": 9312,
  " fans": 9313,
  " Gracie": 9314,
  " countries": 9315,
  " marve": 9316,
  " crops": 9317,
  " Tessa": 9318,
  " Seeing": 9319,
  " knobs": 9320,
  "how": 9321,
  " local": 9322,
  " bushy": 9323,
  " binoculars": 9324,
  " peeped": 9325,
  " Bubu": 9326,
  " drowned": 9327,
  " hunting": 9328,
  " angrier": 9329,
  " bowing": 9330,
  " stew": 9331,
  " maps": 9332,
  " Match": 9333,
  " moonlight": 9334,
  " Glow": 9335,
  " quizzes": 9336,
  " niece": 9337,
  " outfits": 9338,
  " Johnson": 9339,
  " Deal": 9340,
  " crowded": 9341,
  " mindful": 9342,
  " weaker": 9343,
  " whoosh": 9344,
  " wrench": 9345,
  "OO": 9346,
  " Beef": 9347,
  "cycles": 9348,
  " endings": 9349,
  "Squ": 9350,
  " property": 9351,
  " hesitation": 9352,
  " flashes": 9353,
  "oll": 9354,
  "Im": 9355,
  "amiliar": 9356,
  " imaginations": 9357,
  " Oxy": 9358,
  " fond": 9359,
  " Andrew": 9360,
  " unless": 9361,
  " ability": 9362,
  " carts": 9363,
  " boil": 9364,
  " Accidents": 9365,
  " Right": 9366,
  " glared": 9367,
  "getic": 9368,
  " unfamiliar": 9369,
  " spaces": 9370,
  " microw": 9371,
  " folds": 9372,
  " knit": 9373,
  "stand": 9374,
  " haven": 9375,
  " responsibility": 9376,
  " dirtier": 9377,
  "ths": 9378,
  " Pet": 9379,
  "saw": 9380,
  "Tuna": 9381,
  " microwave": 9382,
  " desks": 9383,
  " pouch": 9384,
  "bank": 9385,
  "ibly": 9386,
  " cracker": 9387,
  "Bless": 9388,
  " aston": 9389,
  " member": 9390,
  "rnie": 9391,
  " Oxygen": 9392,
  " swapped": 9393,
  " date": 9394,
  " Ravi": 9395,
  " Ring": 9396,
  " Helen": 9397,
  " disappearing": 9398,
  " Peggy": 9399,
  " softened": 9400,
  " doorstep": 9401,
  " rebu": 9402,
  " whine": 9403,
  " Bun": 9404,
  "lt": 9405,
  "free": 9406,
  "Want": 9407,
  "Cra": 9408,
  " quacks": 9409,
  " Chip": 9410,
  " natur": 9411,
  " writer": 9412,
  "scar": 9413,
  " listener": 9414,
  " Fix": 9415,
  " Too": 9416,
  " Spicy": 9417,
  " priv": 9418,
  " blushed": 9419,
  " palms": 9420,
  "venir": 9421,
  " noticing": 9422,
  "poison": 9423,
  " souvenir": 9424,
  "peat": 9425,
  " Past": 9426,
  "upt": 9427,
  " laws": 9428,
  " disaster": 9429,
  " Gabby": 9430,
  " Res": 9431,
  "entr": 9432,
  "repeat": 9433,
  " Tra": 9434,
  "Robby": 9435,
  " phones": 9436,
  "endant": 9437,
  "str": 9438,
  "reg": 9439,
  " confidence": 9440,
  " Coal": 9441,
  " Cut": 9442,
  "ala": 9443,
  " Bert": 9444,
  " Li": 9445,
  "Ava": 9446,
  " overwhelmed": 9447,
  " timid": 9448,
  " stirs": 9449,
  " mayor": 9450,
  "Being": 9451,
  " flick": 9452,
  "ingly": 9453,
  " Mole": 9454,
  "guess": 9455,
  " Pretty": 9456,
  "asmine": 9457,
  " tugging": 9458,
  "Che": 9459,
  " injured": 9460,
  " satisfa": 9461,
  " mailing": 9462,
  " owls": 9463,
  " untangle": 9464,
  "lor": 9465,
  " satisfaction": 9466,
  " Immediately": 9467,
  " concentr": 9468,
  " White": 9469,
  "Whose": 9470,
  " Books": 9471,
  " Animals": 9472,
  " March": 9473,
  "Fly": 9474,
  " Eat": 9475,
  " lim": 9476,
  "mers": 9477,
  "Sc": 9478,
  "Mittens": 9479,
  " Wonder": 9480,
  " Nora": 9481,
  "this": 9482,
  " prank": 9483,
  " Bonnie": 9484,
  "Mabel": 9485,
  " Triangle": 9486,
  " hooves": 9487,
  " Melissa": 9488,
  " Run": 9489,
  " Pot": 9490,
  " Kn": 9491,
  "Wiggly": 9492,
  "Jeff": 9493,
  " Clean": 9494,
  " Close": 9495,
  " Startled": 9496,
  " fixer": 9497,
  " Sir": 9498,
  "well": 9499,
  " snar": 9500,
  " clut": 9501,
  "icate": 9502,
  " instrument": 9503,
  "Excited": 9504,
  " Trucky": 9505,
  " skies": 9506,
  "lish": 9507,
  "bling": 9508,
  " Matilda": 9509,
  " capt": 9510,
  " Faye": 9511,
  " Horsie": 9512,
  " disagre": 9513,
  "adually": 9514,
  " rinse": 9515,
  " wriggled": 9516,
  " Sleepy": 9517,
  " stains": 9518,
  "iky": 9519,
  " creak": 9520,
  " pecks": 9521,
  "Susan": 9522,
  " Crabby": 9523,
  " Heli": 9524,
  " bumping": 9525,
  " shave": 9526,
  " Icy": 9527,
  " Sing": 9528,
  " swirl": 9529,
  " bending": 9530,
  "ulf": 9531,
  " ruff": 9532,
  "Playing": 9533,
  " chatted": 9534,
  " Scissors": 9535,
  "Close": 9536,
  " exploration": 9537,
  "cessary": 9538,
  " sandpit": 9539,
  " facts": 9540,
  " rods": 9541,
  " lever": 9542,
  "Make": 9543,
  " attaching": 9544,
  " Candy": 9545,
  "Sm": 9546,
  " burger": 9547,
  " fooled": 9548,
  " Bro": 9549,
  " concerned": 9550,
  " clearly": 9551,
  " glows": 9552,
  " certainly": 9553,
  "Maya": 9554,
  " reversing": 9555,
  " salon": 9556,
  " compan": 9557,
  " lava": 9558,
  " fetched": 9559,
  " motorcycles": 9560,
  " circ": 9561,
  "els": 9562,
  " smelt": 9563,
  "Wally": 9564,
  " fireflies": 9565,
  " prod": 9566,
  " oldest": 9567,
  " troll": 9568,
  " sometime": 9569,
  " tunes": 9570,
  " blonde": 9571,
  " challenges": 9572,
  " kissing": 9573,
  "Ring": 9574,
  " warmed": 9575,
  " Bobbie": 9576,
  "Kayla": 9577,
  " natural": 9578,
  " unlocking": 9579,
  " differently": 9580,
  " Lots": 9581,
  " bound": 9582,
  " conquered": 9583,
  " detect": 9584,
  "Abracadabra": 9585,
  " riverbank": 9586,
  " cupcake": 9587,
  " rubb": 9588,
  " cutter": 9589,
  "urple": 9590,
  "erg": 9591,
  "sa": 9592,
  "Tara": 9593,
  "Dino": 9594,
  " Flap": 9595,
  " hates": 9596,
  " alley": 9597,
  " Flopsy": 9598,
  " swirls": 9599,
  " sends": 9600,
  " Open": 9601,
  " realise": 9602,
  "sorry": 9603,
  " sensation": 9604,
  "Julia": 9605,
  " banging": 9606,
  " wiggling": 9607,
  "Isn": 9608,
  " Cammy": 9609,
  " munched": 9610,
  " toppings": 9611,
  " Reliable": 9612,
  " hippos": 9613,
  " clips": 9614,
  " fist": 9615,
  " miracle": 9616,
  " swayed": 9617,
  " Greeny": 9618,
  "Doctor": 9619,
  " brakes": 9620,
  " robe": 9621,
  " stings": 9622,
  " halves": 9623,
  " survive": 9624,
  " Climb": 9625,
  " ostriches": 9626,
  " Pink": 9627,
  "Hope": 9628,
  "Fish": 9629,
  " torto": 9630,
  "keepers": 9631,
  " embra": 9632,
  " bubbling": 9633,
  " crushed": 9634,
  "bert": 9635,
  " otherwise": 9636,
  "ula": 9637,
  "Michael": 9638,
  " Looking": 9639,
  " tents": 9640,
  " repairing": 9641,
  " Of": 9642,
  "ani": 9643,
  " rubbish": 9644,
  " Flicker": 9645,
  " vinegar": 9646,
  " stretchy": 9647,
  " lizards": 9648,
  " Working": 9649,
  " passenger": 9650,
  " Ed": 9651,
  " tortoise": 9652,
  " vibrant": 9653,
  " Which": 9654,
  "aste": 9655,
  " pounced": 9656,
  "Many": 9657,
  " scene": 9658,
  "Suzie": 9659,
  " Grump": 9660,
  " Rh": 9661,
  " desperately": 9662,
  " mooed": 9663,
  " glided": 9664,
  " bas": 9665,
  "gr": 9666,
  " Lightning": 9667,
  " majest": 9668,
  " Sundays": 9669,
  " copied": 9670,
  " calmer": 9671,
  " snip": 9672,
  " intently": 9673,
  " poop": 9674,
  " judges": 9675,
  " rags": 9676,
  " coolest": 9677,
  " joyfully": 9678,
  " woken": 9679,
  " Per": 9680,
  " twel": 9681,
  " jing": 9682,
  "rap": 9683,
  "net": 9684,
  "smelling": 9685,
  " lectures": 9686,
  " Jody": 9687,
  " glob": 9688,
  " astonished": 9689,
  " cousins": 9690,
  "lyn": 9691,
  "isible": 9692,
  " hips": 9693,
  " Outside": 9694,
  " capes": 9695,
  " Lu": 9696,
  " reunited": 9697,
  " gooey": 9698,
  "Eww": 9699,
  " speaker": 9700,
  " successfully": 9701,
  " invisible": 9702,
  " arrives": 9703,
  " guesses": 9704,
  "uno": 9705,
  " twelve": 9706,
  "why": 9707,
  " bats": 9708,
  " chatting": 9709,
  "Mikey": 9710,
  " Carla": 9711,
  " computers": 9712,
  " goodness": 9713,
  "urity": 9714,
  " snowflake": 9715,
  " stacking": 9716,
  "nded": 9717,
  "mie": 9718,
  " companion": 9719,
  " reappeared": 9720,
  " desperate": 9721,
  " pounds": 9722,
  " commun": 9723,
  " racer": 9724,
  "istory": 9725,
  " parks": 9726,
  " luckiest": 9727,
  " level": 9728,
  " ank": 9729,
  " dou": 9730,
  "bed": 9731,
  "Zigzag": 9732,
  "Ol": 9733,
  " stomachs": 9734,
  " crickets": 9735,
  " sells": 9736,
  " Sugar": 9737,
  " gall": 9738,
  " dumb": 9739,
  " tale": 9740,
  " disagreement": 9741,
  " disobeyed": 9742,
  " Steven": 9743,
  "iggles": 9744,
  " winds": 9745,
  " gates": 9746,
  " sus": 9747,
  "Nick": 9748,
  " pearls": 9749,
  " awh": 9750,
  " awhile": 9751,
  " crisp": 9752,
  " hoses": 9753,
  " Whee": 9754,
  "More": 9755,
  " popsic": 9756,
  " Orange": 9757,
  " loyalty": 9758,
  " soda": 9759,
  "ites": 9760,
  "Lou": 9761,
  " tongues": 9762,
  " Rosa": 9763,
  "Linda": 9764,
  " rider": 9765,
  " CD": 9766,
  "usion": 9767,
  "rent": 9768,
  " Black": 9769,
  "Ooh": 9770,
  " Annabelle": 9771,
  " surely": 9772,
  " abo": 9773,
  " Law": 9774,
  "pan": 9775,
  " occasion": 9776,
  "colored": 9777,
  " bund": 9778,
  "des": 9779,
  " guitars": 9780,
  "izza": 9781,
  " chicks": 9782,
  " stun": 9783,
  "rum": 9784,
  "dog": 9785,
  "!â": 9786,
  " aboard": 9787,
  " rebuild": 9788,
  " seashe": 9789,
  " separating": 9790,
  " alligators": 9791,
  " intelligence": 9792,
  " Raven": 9793,
  " April": 9794,
  "chief": 9795,
  " Iron": 9796,
  " Violet": 9797,
  " croak": 9798,
  " creep": 9799,
  " Winky": 9800,
  "Found": 9801,
  " caution": 9802,
  "Something": 9803,
  "aids": 9804,
  " Old": 9805,
  " Care": 9806,
  " learner": 9807,
  " cuc": 9808,
  "Catch": 9809,
  "solut": 9810,
  " revealing": 9811,
  " Uni": 9812,
  " spiky": 9813,
  " whines": 9814,
  " rins": 9815,
  " escap": 9816,
  " tickling": 9817,
  " Settle": 9818,
  "working": 9819,
  " globe": 9820,
  " Roar": 9821,
  " crouched": 9822,
  " underwater": 9823,
  " Coby": 9824,
  " Ba": 9825,
  "!'.": 9826,
  " appearance": 9827,
  " ''": 9828,
  " blooms": 9829,
  "everse": 9830,
  " prog": 9831,
  "udge": 9832,
  " strokes": 9833,
  " guardian": 9834,
  " hatched": 9835,
  " Socky": 9836,
  "ifer": 9837,
  " leaking": 9838,
  "urricane": 9839,
  "seph": 9840,
  "stop": 9841,
  "fived": 9842,
  "Jan": 9843,
  " routine": 9844,
  "ealing": 9845,
  " persistence": 9846,
  " zookeepers": 9847,
  "arning": 9848,
  " doves": 9849,
  " tant": 9850,
  "Snap": 9851,
  "Chicky": 9852,
  " taps": 9853,
  " admit": 9854,
  " lighting": 9855,
  " painful": 9856,
  " squashes": 9857,
  " quilt": 9858,
  " blame": 9859,
  "Sleep": 9860,
  " tempting": 9861,
  "Ahh": 9862,
  " deeply": 9863,
  " ripp": 9864,
  " Puff": 9865,
  " mold": 9866,
  " shattered": 9867,
  "Toys": 9868,
  " electricity": 9869,
  " squirted": 9870,
  "Matt": 9871,
  " centre": 9872,
  " burgers": 9873,
  " peeks": 9874,
  " Spin": 9875,
  "ggles": 9876,
  " security": 9877,
  " throne": 9878,
  "Three": 9879,
  "Ralph": 9880,
  " allowing": 9881,
  " realizing": 9882,
  " cooks": 9883,
  "emon": 9884,
  " Liam": 9885,
  "con": 9886,
  " exchange": 9887,
  "Jessica": 9888,
  " chopping": 9889,
  "orth": 9890,
  "ushes": 9891,
  "cker": 9892,
  " lar": 9893,
  " Quickly": 9894,
  "Share": 9895,
  " sweetly": 9896,
  " Race": 9897,
  " Alf": 9898,
  "Sophia": 9899,
  " rinsed": 9900,
  " glittered": 9901,
  " sweeter": 9902,
  "vering": 9903,
  "oss": 9904,
  "isapp": 9905,
  " defeated": 9906,
  " energetic": 9907,
  " furious": 9908,
  " melts": 9909,
  " melody": 9910,
  " builders": 9911,
  " Inch": 9912,
  " goggles": 9913,
  "Zero": 9914,
  "Sw": 9915,
  " tantrum": 9916,
  " Otherwise": 9917,
  " chooses": 9918,
  " sniffled": 9919,
  " Cats": 9920,
  " Comet": 9921,
  "asy": 9922,
  " waded": 9923,
  " container": 9924,
  " competing": 9925,
  " Giant": 9926,
  " Sharp": 9927,
  "eremy": 9928,
  " Mila": 9929,
  "bang": 9930,
  " larger": 9931,
  " attempts": 9932,
  " undone": 9933,
  " seriously": 9934,
  " protection": 9935,
  " Rara": 9936,
  " Park": 9937,
  " Duke": 9938,
  "arted": 9939,
  " lull": 9940,
  " hudd": 9941,
  " Pinchy": 9942,
  " tossing": 9943,
  "Shoo": 9944,
  " cooed": 9945,
  " helicopters": 9946,
  " buckles": 9947,
  " Whale": 9948,
  " Cher": 9949,
  " cluck": 9950,
  "Lizzie": 9951,
  " Smo": 9952,
  " Over": 9953,
  " Tears": 9954,
  "Sweet": 9955,
  "solutely": 9956,
  "Squeaky": 9957,
  " courageous": 9958,
  " hummed": 9959,
  "Still": 9960,
  " Din": 9961,
  " Ma": 9962,
  " Hor": 9963,
  " dedic": 9964,
  "Maddy": 9965,
  " deserves": 9966,
  " racers": 9967,
  "Everything": 9968,
  " patients": 9969,
  " muster": 9970,
  " aloud": 9971,
  " god": 9972,
  " Things": 9973,
  "Curious": 9974,
  " Squee": 9975,
  " Dragon": 9976,
  "aps": 9977,
  "Use": 9978,
  " Liza": 9979,
  " tours": 9980,
  " meets": 9981,
  " marvel": 9982,
  " Rusty": 9983,
  " Jet": 9984,
  " Crusty": 9985,
  "Froggy": 9986,
  " wrapper": 9987,
  " Reddy": 9988,
  " Hops": 9989,
  " improving": 9990,
  " nicest": 9991,
  " whiskers": 9992,
  " booth": 9993,
  " Land": 9994,
  "Rocky": 9995,
  " meadows": 9996,
  " Starry": 9997,
  " imaginary": 9998,
  " bold": 9999
}